/* Automatically generated source file */
#include <float.h>
#include <tinyengine_function.h>
#include <tinyengine_function_fp.h>

#include "genNN.h"
#include "genModel.h"
#include "genInclude.h"

#include "arm_math.h"
#include "arm_nnfunctions.h"

arm_status arm_convolve_s8_4col(const q7_t *input,
                           const uint16_t input_x,
                           const uint16_t input_y,
                           const uint16_t input_ch,
                           const uint16_t input_batches,
                           const q7_t *kernel,
                           const uint16_t output_ch,
                           const uint16_t kernel_x,
                           const uint16_t kernel_y,
                           const uint16_t pad_x,
                           const uint16_t pad_y,
                           const uint16_t stride_x,
                           const uint16_t stride_y,
                           const int32_t *bias,
                           q7_t *output,
                           const int32_t *output_shift,
                           const int32_t *output_mult,
                           const int32_t out_offset,
                           const int32_t input_offset,
                           const int32_t out_activation_min,
                           const int32_t out_activation_max,
                            const uint16_t output_x,
                            const uint16_t output_y,
                            q15_t *buffer_a);

tinyengine_status max_pooling(const q7_t* input, const uint16_t input_h, const uint16_t input_w, const uint16_t input_c, const uint16_t pool_h, const uint16_t pool_w, const uint16_t stride_h, const uint16_t stride_w, const int32_t out_activation_min, const int32_t out_activation_max, q7_t* output);

void arm_q7_to_q15_with_offset(const q7_t *src, q15_t *dst, uint32_t block_size, q15_t offset) {
    uint32_t i;
    for (i = 0; i < block_size; i++) {
        dst[i] = (q15_t)src[i] + offset;
    }
}

void less_int8(const uint16_t size, const int8_t* input1_data, const int8_t* input2_data, bool* output_data) {
    uint32_t i;
    for (i = 0; i < size; i++) {
        output_data[i] = input1_data[i] < input2_data[i];
    }
}

static inline int32_t arm_nn_requantize_generic(const int32_t val, const int32_t multiplier, const int32_t shift) {
    const int64_t total_shift = 31 - shift;
    const int64_t new_val = val * (int64_t)multiplier;

    int32_t result = new_val >> (total_shift - 1);
    result = (result + 1) >> 1;

    return result;
}

q7_t *arm_nn_mat_mult_kernel_s8_s16(
    const q7_t *input_a,
    const q15_t *input_b,
    const uint16_t output_ch,
    const int32_t *out_shift,
    const int32_t *out_mult,
    const int32_t out_offset,
    const int16_t activation_min,
    const int16_t activation_max,
    const uint16_t num_col_a,
    const int32_t *const output_bias,
    q7_t *out_0
) {
    for (int ch = 0; ch < output_ch; ch++) {
        int32_t bias = output_bias ? output_bias[ch] : 0;
        int32_t acc0 = bias;
        int32_t acc1 = bias;
        
        const q7_t *weight_row = input_a + ch * num_col_a;
        const q15_t *col0 = input_b;
        const q15_t *col1 = input_b + num_col_a;
        
        for (int col = 0; col < num_col_a; col++) {
            int16_t w = (int16_t)weight_row[col];
            acc0 += w * col0[col];
            acc1 += w * col1[col];
        }
        
        int32_t out0 = arm_nn_requantize_generic(acc0, out_mult[ch], out_shift[ch]) + out_offset;
        int32_t out1 = arm_nn_requantize_generic(acc1, out_mult[ch], out_shift[ch]) + out_offset;
        
        if (out0 < activation_min) out0 = activation_min;
        if (out0 > activation_max) out0 = activation_max;
        if (out1 < activation_min) out1 = activation_min;
        if (out1 > activation_max) out1 = activation_max;
        
        out_0[0 * output_ch + ch] = (q7_t)out0;
        out_0[1 * output_ch + ch] = (q7_t)out1;
    }
    return out_0 + 2 * output_ch;
}

q7_t *arm_nn_mat_mult_kernel_s8_s16_4col(
    const q7_t *input_a,
    const q15_t *input_b,
    const uint16_t output_ch,
    const int32_t *out_shift,
    const int32_t *out_mult,
    const int32_t out_offset,
    const int16_t activation_min,
    const int16_t activation_max,
    const uint16_t num_col_a,
    const int32_t *const output_bias,
    q7_t *out_0
) {
    for (int ch = 0; ch < output_ch; ch++) {
        int32_t bias = output_bias ? output_bias[ch] : 0;
        int32_t acc0 = bias;
        int32_t acc1 = bias;
        int32_t acc2 = bias;
        int32_t acc3 = bias;
        
        const q7_t *weight_row = input_a + ch * num_col_a;
        const q15_t *col0 = input_b;
        const q15_t *col1 = input_b + num_col_a;
        const q15_t *col2 = input_b + 2 * num_col_a;
        const q15_t *col3 = input_b + 3 * num_col_a;
        
        for (int col = 0; col < num_col_a; col++) {
            int16_t w = (int16_t)weight_row[col];
            acc0 += w * col0[col];
            acc1 += w * col1[col];
            acc2 += w * col2[col];
            acc3 += w * col3[col];
        }
        
        int32_t out0 = arm_nn_requantize_generic(acc0, out_mult[ch], out_shift[ch]) + out_offset;
        int32_t out1 = arm_nn_requantize_generic(acc1, out_mult[ch], out_shift[ch]) + out_offset;
        int32_t out2 = arm_nn_requantize_generic(acc2, out_mult[ch], out_shift[ch]) + out_offset;
        int32_t out3 = arm_nn_requantize_generic(acc3, out_mult[ch], out_shift[ch]) + out_offset;
        
        if (out0 < activation_min) out0 = activation_min;
        if (out0 > activation_max) out0 = activation_max;
        if (out1 < activation_min) out1 = activation_min;
        if (out1 > activation_max) out1 = activation_max;
        if (out2 < activation_min) out2 = activation_min;
        if (out2 > activation_max) out2 = activation_max;
        if (out3 < activation_min) out3 = activation_min;
        if (out3 > activation_max) out3 = activation_max;
        
        out_0[0 * output_ch + ch] = (q7_t)out0;
        out_0[1 * output_ch + ch] = (q7_t)out1;
        out_0[2 * output_ch + ch] = (q7_t)out2;
        out_0[3 * output_ch + ch] = (q7_t)out3;
    }
    return out_0 + 4 * output_ch;
}

void where_zeros_int8_inplace_bit(const bool* inMask, const uint16_t size, signed char* input1_data) {
  int i;
  const unsigned char* mask_bytes = (const unsigned char*)inMask;
  for (i = 0; i < size; ++i) {
      int bit_starting_idx = i % 8;
      int mask = (mask_bytes[i/8] >> bit_starting_idx) & 0x1;
      input1_data[i] = mask > 0 ? input1_data[i] : 0;
  }
}

float loss_val = 0.0f;

float get_lr() {
    return lr;
}

float get_blr() {
    return blr;
}

void set_lr(float new_lr) {
    lr = new_lr;
}

void set_blr(float new_blr) {
    blr = new_blr;
}

float get_loss() {
    return loss_val;
}


/* Variables used by all ops */
ADD_params add_params;
int i;
int8_t *int8ptr,*int8ptr2;
int32_t *int32ptr;
float *fptr,*fptr2,*fptr3;

signed char* getInput() {
    return &buffer0[6400];
}
signed char* getOutput() {
    return NNoutput;
}
void end2endinference(q7_t* img){
    invoke(NULL);
}
void invoke(float* labels){
/* layer 0:CONV_2D */
arm_convolve_s8_4col(&buffer0[6400], 40, 20, 8, 1, (const q7_t*)weight0, 16, 3, 3, 1, 1, 2, 1, bias0, &buffer0[0], shift0, multiplier0, 0, -2, 0, 127, 20, 20, sbuf);
/* layer 1:CONV_2D */
arm_convolve_s8_4col(&buffer0[0], 20, 20, 16, 1, (const q7_t*)weight1, 32, 3, 3, 0, 0, 2, 2, bias1, &buffer0[6400], shift1, multiplier1, 0, 0, 0, 127, 9, 9, sbuf);
/* layer 2:CONV_2D */
arm_convolve_s8_4col(&buffer0[6400], 9, 9, 32, 1, (const q7_t*)weight2, 64, 3, 3, 0, 0, 2, 2, bias2, &buffer0[0], shift2, multiplier2, 0, 0, 0, 127, 4, 4, sbuf);
/* layer 3:MAX_POOL_2D */
max_pooling(&buffer0[0],4,4,64,2,2,2,2,-128,127,&buffer0[1024]);
/* layer 4:RESHAPE */
memcpy(&buffer0[0], &buffer0[1024], 256);
/* layer 5:CONV_2D */
convolve_1x1_s8_fpreq_bitmask(&buffer0[0],1,1,256,(const q7_t*) weight3,bias3,scales3,0,0,-128,127,&buffer0[260],&buffer0[256],1,1,10,sbuf);
/* layer 6:CAST */
fptr = (float*)&buffer0[300];
int8ptr = (int8_t*)&buffer0[260];
for(int i = 0; i < 10; i++) fptr[i] = (float)int8ptr[i];
/* layer 7:LOG_SOFTMAX */
LogSoftmax((float*)&buffer0[300],1,1,10,(float*)&buffer0[260],1,1,10);
/* layer 8:NLL_LOSS */
nll_loss((float*)&buffer0[260],2,1,labels,10,(float*)&buffer0[300]);
loss_val = *((float*)&buffer0[300]);
/* layer 9:ONES */
fptr = (float*)&buffer0[300];for(int i = 0; i < 1; i++) fptr[i] = 1.0;
/* layer 10:NEGATIVE */
fptr = (float*)&buffer0[300];fptr2 = (float*)&buffer0[340];for(int i = 0; i < 1; i++) fptr2[i] = fptr[i] * -1.0f;
/* layer 11:MUL */
fptr = (float*)labels;fptr3 = (float*)&buffer0[300];fptr2 = (float*)&buffer0[340];for(int i = 0; i < 10; i++) fptr3[i] = *fptr2 * fptr[i];
/* layer 12:SUM */
sum_3D((float*)&buffer0[300],1,10,1,1,(float*)&buffer0[340]);
/* layer 13:EXP */
tte_exp(10,(float*)&buffer0[260],(float*)&buffer0[344]);
/* layer 14:MUL */
fptr = (float*)&buffer0[344];fptr3 = (float*)&buffer0[384];fptr2 = (float*)&buffer0[340];for(int i = 0; i < 10; i++) fptr3[i] = *fptr2 * fptr[i];
/* layer 15:SUBTRACT */
sub(10,(float*)&buffer0[300],(float*)&buffer0[384],(float*)&buffer0[260]);
/* layer 16:WHERE */
where_zeros_inplace_bit((const unsigned char*)&buffer0[256],10,(float*)&buffer0[260]);
/* layer 17:MUL */
mul(10,(float*)&buffer0[260],scales3,(float*)&buffer0[300]);
/* layer 18:BIAS_UPDATE */
const float v4_bias_QAS[10] = {999999999.9999999,999999999.9999999,999999999.9999999,999999999.9999999,999999999.9999999,999999999.9999999,999999999.9999999,999999999.9999999,999999999.9999999,999999999.9999999,};
fptr = (float*)&buffer0[300];//gradients
for(int i = 0; i < 10; i++) v4_bias[i] -= (int32_t)(fptr[i] * blr * v4_bias_QAS[i]);
/* layer 19:GROUP_CONV */
const float v4_weight_QAS[10] = {999999999.9999999,999999999.9999999,999999999.9999999,999999999.9999999,999999999.9999999,999999999.9999999,999999999.9999999,999999999.9999999,999999999.9999999,999999999.9999999,};
group_pointwise_conv_fp_in1x1_out1x1_1row10col_uniweight_int8input_inplace((const int8_t*)&buffer0[0],1,1,256,weight_fp4,NULL,v4_weight,1,1,2560,-FLT_MAX,FLT_MAX,(float*)sbuf,1,256, v4_weight_QAS, lr);
/* layer 20:ZEROS */
int8ptr = (char*)&buffer0[0];for(int i = 0; i < 1024; i++) int8ptr[i] = 0;
/* layer 21:LESS */
less_int8(1024,(signed char*)&buffer0[2048],(signed char*)&buffer0[0],(bool*)&buffer0[1024]);
/* layer 22:WHERE */
where_zeros_int8_inplace_bit((bool*)&buffer0[1024],1024,(signed char*)&buffer0[0]);
/* layer 23:WHERE */
where_zeros_int8_inplace_bit((bool*)&buffer0[1024],1024,(signed char*)&buffer0[0]);
/* layer 24:CAST */
fptr = (float*)&buffer0[1024];
int8ptr = (int8_t*)&buffer0[0];
for(int i = 0; i < 1024; i++) fptr[i] = (float)int8ptr[i];
/* layer 25:MUL */
fptr = (float*)&buffer0[1024];
fptr2 = (float*)scales2;
for(int hw = 0; hw < 16; hw++){
for(int i = 0; i < 64; i++){float f = *fptr; *fptr++ = fptr2[i] * f;};
}
/* layer 26:SUM */
sum_4D_exclude((float*)&buffer0[1024],1,4,4,64,3,(float*)&buffer0[0]);
/* layer 27:BIAS_UPDATE */
const float v2_bias_QAS[64] = {999999999.9999999,999999999.9999999,999999999.9999999,999999999.9999999,999999999.9999999,999999999.9999999,999999999.9999999,999999999.9999999,999999999.9999999,999999999.9999999,999999999.9999999,999999999.9999999,999999999.9999999,999999999.9999999,999999999.9999999,999999999.9999999,999999999.9999999,999999999.9999999,999999999.9999999,999999999.9999999,999999999.9999999,999999999.9999999,999999999.9999999,999999999.9999999,999999999.9999999,999999999.9999999,999999999.9999999,999999999.9999999,999999999.9999999,999999999.9999999,999999999.9999999,999999999.9999999,999999999.9999999,999999999.9999999,999999999.9999999,999999999.9999999,999999999.9999999,999999999.9999999,999999999.9999999,999999999.9999999,999999999.9999999,999999999.9999999,999999999.9999999,999999999.9999999,999999999.9999999,999999999.9999999,999999999.9999999,999999999.9999999,999999999.9999999,999999999.9999999,999999999.9999999,999999999.9999999,999999999.9999999,999999999.9999999,999999999.9999999,999999999.9999999,999999999.9999999,999999999.9999999,999999999.9999999,999999999.9999999,999999999.9999999,999999999.9999999,999999999.9999999,999999999.9999999,};
fptr = (float*)&buffer0[0];//gradients
for(int i = 0; i < 64; i++) v2_bias[i] -= (int32_t)(fptr[i] * blr * v2_bias_QAS[i]);
}
void invoke_inf(){
/* layer 0:CONV_2D */
arm_convolve_s8_4col(&buffer0[6400], 40, 20, 8, 1, (const q7_t*)weight0, 16, 3, 3, 1, 1, 2, 1, bias0, &buffer0[0], shift0, multiplier0, 0, -2, 0, 127, 20, 20, sbuf);
/* layer 1:CONV_2D */
arm_convolve_s8_4col(&buffer0[0], 20, 20, 16, 1, (const q7_t*)weight1, 32, 3, 3, 0, 0, 2, 2, bias1, &buffer0[6400], shift1, multiplier1, 0, 0, 0, 127, 9, 9, sbuf);
/* layer 2:CONV_2D */
arm_convolve_s8_4col(&buffer0[6400], 9, 9, 32, 1, (const q7_t*)weight2, 64, 3, 3, 0, 0, 2, 2, bias2, &buffer0[0], shift2, multiplier2, 0, 0, 0, 127, 4, 4, sbuf);
/* layer 3:MAX_POOL_2D */
max_pooling(&buffer0[0],4,4,64,2,2,2,2,-128,127,&buffer0[1024]);
/* layer 4:RESHAPE */
memcpy(&buffer0[0], &buffer0[1024], 256);
/* layer 5:CONV_2D */
convolve_1x1_s8_fpreq_bitmask(&buffer0[0],1,1,256,(const q7_t*) weight3,bias3,scales3,0,0,-128,127,&buffer0[260],&buffer0[256],1,1,10,sbuf);

/* layer 5:CAST */
fptr = (float*)&buffer0[428];
int8ptr = (int8_t*)&buffer0[388];
for(int i = 0; i < 10; i++) fptr[i] = (float)int8ptr[i];
/* layer 6:LOG_SOFTMAX */
LogSoftmax((float*)&buffer0[428],1,1,10,(float*)&buffer0[388],1,1,10);
}

static unsigned char weight3_backup[2560];
static int32_t bias3_backup[10];
static int32_t bias2_backup[64];
static int backup_initialized = 0;

void reset_weights() {
    if (!backup_initialized) {
        memcpy(weight3_backup, weight3, 2560);
        memcpy(bias3_backup, bias3, 10 * sizeof(int32_t));
        memcpy(bias2_backup, bias2, 64 * sizeof(int32_t));
        backup_initialized = 1;
    } else {
        memcpy(weight3, weight3_backup, 2560);
        memcpy(bias3, bias3_backup, 10 * sizeof(int32_t));
        memcpy(bias2, bias2_backup, 64 * sizeof(int32_t));
    }
}

void print_weights() {
    printf("weight3 classifier channel 9 first 10 elements: ");
    for (int i = 0; i < 10; i++) {
        printf("%d ", (signed char)weight3[9 * 256 + i]);
    }
    printf("\n");
    printf("bias3 classifier biases: ");
    for (int i = 0; i < 10; i++) {
        printf("%d ", bias3[i]);
    }
    printf("\n");
    printf("bias2 layer 2 biases first 10 elements: ");
    for (int i = 0; i < 10; i++) {
        printf("%d ", bias2[i]);
    }
    printf("\n");
}


// Trainable parameters in RAM
unsigned char weight3[2560] = {0xd5, 0xc0, 0x07, 0x38, 0xec, 0xdf, 0xc3, 0xd7, 0x4c, 0xa7, 0x1f, 0xf2, 0xd9, 0xdf, 0xfe, 0xe7, 0xfb, 0xd4, 0x46, 0xe3, 0xd5, 0x34, 0xcb, 0x48, 0xf2, 0x2a, 0xc3, 0xe4, 0xfe, 0xf7, 0xd6, 0xf0, 0x09, 0x2b, 0xbf, 0xc7, 0xf3, 0xe0, 0xe2, 0x01, 0x06, 0x00, 0xe0, 0x2c, 0x5b, 0xe9, 0xdf, 0xf7, 0x04, 0xb4, 0xe5, 0x35, 0xac, 0xc1, 0xf6, 0x2d, 0xe0, 0xcc, 0xc5, 0xeb, 0xfb, 0x2d, 0xef, 0xdd, 0xb7, 0xc2, 0xee, 0xa9, 0xe1, 0xd0, 0xa4, 0xcd, 0x49, 0xd4, 0x51, 0xed, 0xae, 0xb1, 0xdb, 0xae, 0xd2, 0xb4, 0x32, 0xd5, 0xec, 0x2f, 0xae, 0x45, 0xf1, 0x23, 0xf5, 0x05, 0xf0, 0xd5, 0xa3, 0xb7, 0xdc, 0xa5, 0xf1, 0xf3, 0xdc, 0xf6, 0xc1, 0xe2, 0x95, 0xd2, 0xe0, 0x48, 0x25, 0xef, 0xf6, 0xe1, 0xf8, 0xd2, 0xbc, 0xcf, 0xd1, 0xd8, 0x03, 0x30, 0x85, 0xd0, 0xec, 0xcd, 0xa1, 0x3a, 0xe4, 0xf2, 0xb1, 0xd4, 0xf5, 0x30, 0xde, 0xc0, 0xc1, 0xee, 0x51, 0xd0, 0x40, 0xcf, 0xcc, 0xb5, 0xe0, 0xd1, 0xe5, 0x81, 0x54, 0xc1, 0xe0, 0x2e, 0xc4, 0x27, 0x0c, 0x3e, 0xd7, 0xf2, 0xe8, 0xdd, 0xc4, 0xd9, 0xdf, 0xec, 0xac, 0xc3, 0xf1, 0xd0, 0xf9, 0x02, 0xee, 0x04, 0x06, 0x41, 0x57, 0xf7, 0xf4, 0xda, 0xd7, 0xb2, 0xf7, 0xf8, 0xac, 0xe7, 0xa5, 0x2e, 0xfb, 0x01, 0xd2, 0x99, 0xd5, 0x47, 0xd2, 0xca, 0xd3, 0xf1, 0xf3, 0xc3, 0xda, 0xde, 0xb2, 0xc3, 0x3a, 0x08, 0x43, 0xe2, 0xad, 0xaf, 0xe8, 0xc4, 0xcd, 0xd6, 0x4d, 0xe8, 0xd5, 0x4a, 0xc3, 0x47, 0xfd, 0x45, 0xc3, 0xea, 0x06, 0xd4, 0xc9, 0xb9, 0xc7, 0x94, 0xdc, 0xd0, 0xdc, 0x04, 0x90, 0xbf, 0xbc, 0xf7, 0xe5, 0x3e, 0x29, 0xe6, 0xed, 0xc4, 0xf0, 0xed, 0xef, 0xcb, 0xdf, 0xd5, 0xd6, 0x38, 0xc5, 0xcc, 0xe3, 0xb0, 0xd2, 0x29, 0xe9, 0xda, 0xdb, 0xb8, 0xae, 0xdd, 0xec, 0xbe, 0x3c, 0x1b, 0x04, 0xd0, 0xe2, 0x10, 0xf2, 0x10, 0xe8, 0x1e, 0x24, 0xbe, 0xf7, 0x2f, 0xd4, 0xdf, 0x9b, 0xe6, 0x15, 0x0d, 0x34, 0x33, 0xd1, 0xea, 0x3e, 0x0b, 0x25, 0xd6, 0xfe, 0x1b, 0x5e, 0xd7, 0xe1, 0xf3, 0xc6, 0xda, 0x37, 0xd5, 0xe3, 0x02, 0xbe, 0x22, 0x44, 0x41, 0xc6, 0xf6, 0x08, 0xd1, 0xca, 0xc8, 0xe4, 0xe3, 0x2c, 0xd8, 0xe8, 0xe1, 0xcc, 0xdd, 0x4c, 0xe9, 0xda, 0x57, 0x17, 0x29, 0x2c, 0xb6, 0xdf, 0x2b, 0x0b, 0x01, 0xe6, 0x4a, 0x05, 0x3b, 0xb8, 0xf6, 0xd8, 0xac, 0x2e, 0xf4, 0x20, 0xdb, 0xdd, 0xd1, 0x98, 0x99, 0x97, 0x16, 0x39, 0x35, 0xef, 0xda, 0x46, 0x26, 0x43, 0x14, 0x9e, 0x0f, 0x16, 0x0a, 0xb8, 0xe5, 0xb0, 0xf0, 0xb2, 0x51, 0x41, 0x4e, 0x38, 0xab, 0x4e, 0x43, 0xd3, 0xe6, 0x11, 0x24, 0x2c, 0x0b, 0xd8, 0x0c, 0xa5, 0x29, 0xce, 0xb9, 0xc1, 0xb5, 0xb2, 0xed, 0x0d, 0x19, 0xd8, 0xb1, 0xf8, 0xef, 0xef, 0xf8, 0xef, 0xe0, 0x38, 0xc1, 0xee, 0x3a, 0xdc, 0xd2, 0xca, 0xeb, 0x45, 0xe4, 0x33, 0x2e, 0x0b, 0xe8, 0x56, 0x1f, 0x3d, 0xcb, 0xeb, 0xdd, 0x35, 0xc8, 0xf6, 0xc3, 0xe2, 0xf6, 0x1b, 0xd7, 0xde, 0xf2, 0xbb, 0x39, 0x38, 0x1b, 0xb6, 0x30, 0x23, 0xb0, 0xe3, 0xc1, 0xd0, 0xe5, 0x15, 0xc5, 0xd9, 0x02, 0xd2, 0xe9, 0x61, 0xac, 0xea, 0x3b, 0xfe, 0x69, 0x02, 0xc4, 0xca, 0x07, 0xfd, 0xe3, 0xf0, 0x4a, 0xc3, 0x2e, 0x98, 0x32, 0x04, 0x92, 0x58, 0x01, 0x48, 0xc1, 0xea, 0xd5, 0xa1, 0xa5, 0x9d, 0x3d, 0x19, 0x03, 0xcb, 0xe9, 0x44, 0xd7, 0x51, 0x01, 0x81, 0x2a, 0x09, 0x20, 0xe1, 0xcd, 0xea, 0xdc, 0xce, 0x1e, 0x3b, 0x4f, 0x18, 0xed, 0x5a, 0x13, 0xde, 0x00, 0xfc, 0xf5, 0x16, 0x27, 0xac, 0x0b, 0xa2, 0x54, 0x51, 0x1c, 0xcb, 0x33, 0xec, 0xee, 0x54, 0x03, 0xef, 0xce, 0x20, 0x12, 0xde, 0xfd, 0x0a, 0x3a, 0xb3, 0x2f, 0xdd, 0x8c, 0x50, 0x01, 0xb7, 0xd1, 0x11, 0xfc, 0x0d, 0xa2, 0xf0, 0x0d, 0xeb, 0x0e, 0xb5, 0xb3, 0x4b, 0x35, 0xbb, 0xfc, 0x3d, 0xc4, 0x2f, 0xfb, 0xb8, 0xe6, 0x09, 0xbe, 0xfd, 0x13, 0x2b, 0x4d, 0x2a, 0x02, 0x32, 0x23, 0x24, 0xef, 0xc8, 0x2c, 0x4f, 0x1a, 0x32, 0xfd, 0x04, 0x2c, 0xa3, 0xcf, 0xb2, 0x38, 0xd0, 0xbb, 0xee, 0x49, 0xc6, 0xe6, 0xeb, 0xef, 0xae, 0x23, 0x00, 0xec, 0x3c, 0xa1, 0xd2, 0x0e, 0x2e, 0xdf, 0x0c, 0xbd, 0x68, 0xb5, 0x3f, 0x00, 0x24, 0xbe, 0x44, 0x4d, 0x4b, 0xf5, 0xfb, 0xc7, 0xcd, 0xa1, 0xd3, 0xce, 0x36, 0x27, 0xee, 0xce, 0x4c, 0xe5, 0xe0, 0x1f, 0x1a, 0xba, 0x2e, 0x5f, 0xf3, 0xaa, 0xc8, 0xbc, 0x4c, 0xad, 0x57, 0x83, 0x50, 0x0d, 0xc9, 0xa9, 0x4f, 0xde, 0xbe, 0xe0, 0xc1, 0xfe, 0x46, 0xf5, 0xd4, 0xbf, 0xdc, 0xfc, 0xfd, 0xfe, 0xd6, 0x57, 0xb2, 0x3a, 0xec, 0x85, 0x37, 0xd4, 0xb8, 0xd3, 0x4b, 0xfb, 0xf2, 0xcd, 0xcb, 0xd7, 0xe3, 0xf0, 0xc3, 0xcd, 0x3a, 0x30, 0xb9, 0xc6, 0x1f, 0xeb, 0x21, 0xc0, 0xb2, 0x12, 0x14, 0x99, 0xfd, 0x1e, 0x2d, 0x35, 0xd2, 0x56, 0x4f, 0x1e, 0x60, 0xbc, 0xa6, 0x27, 0x35, 0x4b, 0x69, 0xf7, 0x05, 0x2c, 0x8d, 0xd0, 0xa8, 0xf3, 0xe6, 0xef, 0xb4, 0x4a, 0xe7, 0xb4, 0xe2, 0xa1, 0x9c, 0x20, 0xe1, 0xe0, 0x06, 0xad, 0xe7, 0xf2, 0x10, 0xca, 0x31, 0xb1, 0x69, 0xeb, 0x54, 0xdc, 0x06, 0xc4, 0x20, 0x11, 0xed, 0xf6, 0xef, 0xc0, 0xd8, 0xae, 0xdb, 0xc2, 0x12, 0xfe, 0xde, 0xcd, 0x5f, 0xbc, 0xa7, 0x25, 0x1d, 0xb8, 0xce, 0x5a, 0x95, 0x81, 0xd1, 0xa8, 0x3c, 0x97, 0x50, 0x9b, 0x2b, 0xee, 0xdf, 0xc4, 0x22, 0x28, 0x0f, 0x19, 0x4f, 0x32, 0xdd, 0x14, 0xbf, 0x13, 0xd8, 0x2f, 0x27, 0x50, 0xff, 0xd3, 0x45, 0x05, 0xbc, 0xfb, 0x3b, 0xb1, 0x49, 0xcd, 0x48, 0xb0, 0x0b, 0x19, 0x42, 0x47, 0x20, 0xef, 0x11, 0x05, 0x34, 0x36, 0x20, 0xf1, 0x19, 0x14, 0x3d, 0x53, 0x40, 0xd3, 0x0e, 0x17, 0x11, 0x62, 0x32, 0xf9, 0x14, 0x2a, 0xf8, 0xee, 0x21, 0x43, 0x17, 0x0b, 0x20, 0x0f, 0xdf, 0xe1, 0x0a, 0x1d, 0xf1, 0xd1, 0x01, 0x0e, 0xcc, 0xd5, 0xe5, 0xff, 0xc6, 0x31, 0xd1, 0xbe, 0x06, 0xbd, 0xd3, 0xfe, 0x03, 0xb7, 0xf5, 0x2c, 0xd9, 0xf0, 0xff, 0xcf, 0xdd, 0xfb, 0x02, 0xef, 0xfa, 0x04, 0xe5, 0xc5, 0xcb, 0xca, 0xe0, 0xcd, 0x26, 0xf5, 0xe1, 0xe6, 0xce, 0xce, 0xed, 0xe5, 0xed, 0x2b, 0x00, 0xcf, 0xcd, 0x16, 0xe0, 0xf3, 0x02, 0xe5, 0xf0, 0xd9, 0xf8, 0xe2, 0xc2, 0xb7, 0xec, 0xd0, 0x09, 0xca, 0x1e, 0x31, 0x44, 0x43, 0x46, 0x23, 0x00, 0x0b, 0xc7, 0x2b, 0xdc, 0x2a, 0x25, 0x24, 0x4c, 0x17, 0x0e, 0x16, 0xd4, 0x10, 0x36, 0xd7, 0x0a, 0xef, 0xe3, 0xa9, 0x00, 0x38, 0x0f, 0x32, 0x1b, 0xf1, 0x3e, 0x08, 0x12, 0x00, 0x2c, 0x1c, 0xf1, 0x3d, 0x3a, 0x51, 0x4a, 0xe6, 0xd3, 0x28, 0x42, 0x3a, 0xdc, 0x0d, 0x3e, 0xee, 0x14, 0x09, 0xff, 0x34, 0x25, 0x2b, 0x0c, 0x0e, 0x3a, 0xae, 0x3d, 0x13, 0xbd, 0xd2, 0x25, 0xf2, 0xdd, 0x1a, 0xc4, 0x2e, 0x21, 0x16, 0xc2, 0xbf, 0xf0, 0xca, 0xdb, 0xa5, 0x0e, 0xed, 0x00, 0x0f, 0xba, 0x11, 0xd2, 0x2d, 0xd5, 0xf8, 0x1e, 0xdc, 0xd4, 0xa6, 0xc0, 0xbf, 0xdb, 0xde, 0xab, 0xd0, 0x23, 0x23, 0xe5, 0x0a, 0xc9, 0x0c, 0xcc, 0x27, 0xc9, 0x28, 0xee, 0x95, 0x81, 0xe6, 0xd2, 0x22, 0xa0, 0x13, 0x1b, 0xf7, 0xbb, 0x91, 0xe8, 0xd9, 0xd8, 0xd0, 0xea, 0xe6, 0x0a, 0xc6, 0xd8, 0xf8, 0xeb, 0xfc, 0xcd, 0xf6, 0x04, 0x59, 0xd2, 0xdf, 0x81, 0xd7, 0xa9, 0xd6, 0xc6, 0xd5, 0xc0, 0x05, 0xe4, 0xce, 0xf7, 0x23, 0xb0, 0x0b, 0xca, 0xff, 0xd9, 0xbc, 0xb1, 0xd2, 0xcb, 0x83, 0xbc, 0xb0, 0xf8, 0x05, 0xb6, 0x0b, 0xe8, 0xe7, 0xf0, 0xd0, 0xaa, 0xd9, 0x06, 0x95, 0xbd, 0xbe, 0xdf, 0xa2, 0xfc, 0x18, 0xb7, 0x02, 0x1b, 0x0a, 0x95, 0xc0, 0xbe, 0xe7, 0x13, 0xa7, 0xff, 0x1b, 0x33, 0x14, 0x28, 0x2f, 0x14, 0x39, 0xac, 0x10, 0xf1, 0x13, 0x38, 0x05, 0x4d, 0x1a, 0x19, 0x2a, 0xd3, 0x15, 0x14, 0xae, 0x04, 0xd8, 0xe8, 0xc9, 0x28, 0x32, 0x05, 0x42, 0xeb, 0x12, 0x15, 0xf1, 0x34, 0x37, 0x39, 0x22, 0x34, 0x2a, 0xf1, 0x3a, 0x1d, 0x2f, 0x0e, 0x24, 0x46, 0xe0, 0x0f, 0x2b, 0xeb, 0x39, 0x25, 0x0e, 0x03, 0x44, 0xe2, 0x14, 0xf4, 0x37, 0x09, 0xc8, 0x4f, 0x4f, 0xc5, 0xa8, 0xeb, 0xc5, 0xf3, 0xc8, 0xce, 0xab, 0xd2, 0xda, 0xc9, 0xb7, 0xc3, 0xa0, 0xed, 0xad, 0xe8, 0xdc, 0xd8, 0xb4, 0xd4, 0xe1, 0x00, 0xcb, 0x97, 0xdb, 0xbd, 0xee, 0xb1, 0xca, 0xe1, 0x98, 0xd0, 0xe9, 0xb8, 0xae, 0xdd, 0xbc, 0xf8, 0xc9, 0xec, 0xfb, 0xec, 0xb5, 0xa7, 0x01, 0xc8, 0xdf, 0xba, 0xa7, 0xbc, 0xb8, 0xd0, 0xbd, 0xd4, 0xf2, 0xb4, 0xd9, 0xe1, 0xf0, 0xe6, 0xd9, 0xc3, 0xf1, 0x2f, 0x06, 0x45, 0x11, 0x32, 0x0b, 0x23, 0x2b, 0xa6, 0x44, 0xe9, 0x68, 0xf4, 0xe0, 0x07, 0xfc, 0x23, 0x04, 0xac, 0x1f, 0x47, 0x9c, 0xf4, 0xf6, 0x2d, 0xcb, 0x54, 0x4a, 0x26, 0x4e, 0x03, 0xec, 0x39, 0xff, 0x58, 0x3f, 0x13, 0x4d, 0x38, 0x12, 0x2c, 0x4c, 0x6a, 0xc5, 0xc7, 0x1a, 0x4e, 0x37, 0x31, 0x0e, 0x3c, 0xff, 0x38, 0x22, 0x24, 0x49, 0xf1, 0x34, 0x27, 0x01, 0x24, 0xaf, 0x3a, 0x2e, 0x1f, 0xeb, 0xe2, 0xb7, 0xeb, 0xf2, 0x06, 0xc9, 0xf2, 0xcb, 0xda, 0x29, 0xdd, 0xc5, 0xfa, 0xde, 0xa8, 0x14, 0xcb, 0xd8, 0xa4, 0xf3, 0xb2, 0xd5, 0x0c, 0xf4, 0x1c, 0xfe, 0x2a, 0x1a, 0x9f, 0xc0, 0x17, 0x1c, 0x0a, 0x06, 0x00, 0x3d, 0x26, 0xc3, 0xa5, 0xcc, 0x37, 0xd1, 0xf8, 0xfc, 0x27, 0xa5, 0x04, 0xba, 0xe2, 0xf6, 0xd0, 0x09, 0x36, 0xd9, 0xea, 0xfd, 0xa9, 0x10, 0xdc, 0xcd, 0x3e, 0x13, 0xe6, 0xdc, 0x15, 0xa9, 0x16, 0xd9, 0x05, 0x3e, 0xee, 0xd8, 0xee, 0x10, 0xf8, 0xeb, 0xbd, 0xdc, 0x3f, 0x2d, 0xef, 0xeb, 0x18, 0xee, 0x1c, 0xd5, 0x2b, 0xce, 0x4b, 0xe9, 0xbd, 0xaf, 0xdb, 0xc0, 0xee, 0x02, 0xc9, 0xe1, 0xf1, 0xfd, 0x31, 0xbd, 0x06, 0x1b, 0xd8, 0xce, 0xcb, 0x0b, 0xdf, 0xd9, 0x0e, 0xf4, 0xe5, 0x25, 0xf6, 0xd8, 0x48, 0xea, 0xc5, 0xc1, 0xfc, 0xf2, 0xcc, 0xea, 0xef, 0xe8, 0x3b, 0x3d, 0xc0, 0x82, 0xdb, 0x34, 0x2c, 0x4c, 0x0b, 0x3c, 0x2f, 0x52, 0xd4, 0xb5, 0xdb, 0xe4, 0x1a, 0xe7, 0xe5, 0xcd, 0xcd, 0xf6, 0x92, 0xe0, 0x19, 0xef, 0x58, 0xc6, 0x19, 0x09, 0xe7, 0xa5, 0xf2, 0xe9, 0x20, 0xd5, 0x30, 0x48, 0x39, 0xb0, 0xb9, 0xa0, 0x49, 0xe4, 0xe6, 0x30, 0xf8, 0x81, 0xd4, 0x19, 0xc7, 0xcf, 0x35, 0xe2, 0x45, 0xdf, 0x0b, 0x34, 0xc7, 0xff, 0xad, 0xce, 0x28, 0x22, 0xe7, 0x24, 0x46, 0x42, 0x2e, 0x01, 0xfe, 0x46, 0xdb, 0x51, 0xc2, 0x04, 0x24, 0xd2, 0x1b, 0xc0, 0x12, 0xf9, 0xf3, 0x4b, 0x39, 0xdf, 0x28, 0xf8, 0x32, 0xc2, 0xef, 0xcc, 0xbe, 0xcb, 0xf2, 0x38, 0x48, 0xe1, 0x98, 0xdf, 0xc5, 0x63, 0x33, 0xdb, 0x17, 0xf7, 0xd0, 0x08, 0x02, 0x67, 0xdf, 0xe5, 0xe1, 0xf5, 0x07, 0xe9, 0x29, 0x38, 0x17, 0x04, 0x22, 0xb0, 0xe4, 0xe1, 0xe6, 0xe0, 0xc0, 0xc5, 0xf8, 0xe5, 0x0a, 0xfe, 0xc6, 0x11, 0xed, 0x0b, 0xe9, 0x1c, 0x03, 0x00, 0x06, 0x1b, 0xd2, 0xc8, 0xe7, 0x06, 0xb7, 0x1b, 0x10, 0xd6, 0x35, 0x10, 0xcb, 0xca, 0xf7, 0xb5, 0xea, 0xe8, 0x37, 0xba, 0x18, 0x3c, 0x10, 0xd2, 0x33, 0x19, 0x01, 0xe9, 0x02, 0xdc, 0xed, 0xdb, 0xc2, 0xee, 0xfe, 0xbb, 0xcf, 0xf9, 0xe0, 0xa8, 0xe9, 0x08, 0x1a, 0xfb, 0x55, 0x10, 0xf1, 0x14, 0xe3, 0xc9, 0x1d, 0x07, 0xfb, 0x09, 0x21, 0x03, 0x27, 0x25, 0xdf, 0xd7, 0xed, 0xe7, 0xb7, 0xb6, 0x28, 0x23, 0x25, 0xc6, 0x2b, 0x1d, 0xe8, 0x16, 0xd8, 0xcb, 0x10, 0xd6, 0xa0, 0xd3, 0x05, 0x16, 0x0f, 0x48, 0x22, 0x1f, 0x19, 0x08, 0xe8, 0xe0, 0xc1, 0xb2, 0x3b, 0x37, 0x35, 0xfe, 0xd4, 0xc8, 0xde, 0xec, 0xf2, 0xff, 0xc9, 0xea, 0xf4, 0x30, 0xc7, 0x28, 0xd7, 0xe4, 0x02, 0x1b, 0xc2, 0x0e, 0xd1, 0xf2, 0xd9, 0xb4, 0x16, 0xda, 0xac, 0x34, 0x8d, 0xb3, 0x2c, 0x12, 0xe8, 0x17, 0xf5, 0x19, 0x67, 0x2d, 0x90, 0xdc, 0x01, 0xb8, 0xa9, 0x55, 0x40, 0xc1, 0x7f, 0x1b, 0xd7, 0xe2, 0xd2, 0xc2, 0xda, 0xe8, 0x42, 0x06, 0x01, 0x1a, 0x05, 0x16, 0x24, 0x16, 0xff, 0x65, 0x11, 0xa6, 0xf9, 0xb2, 0xd7, 0xc6, 0xed, 0xe6, 0xe8, 0x17, 0x2f, 0xd7, 0xfc, 0x0e, 0xd8, 0xa4, 0x44, 0x37, 0xeb, 0xc6, 0xee, 0xc6, 0x2b, 0xfc, 0xea, 0x3f, 0xf3, 0x2b, 0x3a, 0xa0, 0x5b, 0xc4, 0xd4, 0xa5, 0xdb, 0xa9, 0x1b, 0xf7, 0x08, 0x0a, 0xc4, 0x1d, 0xe8, 0xe0, 0xe1, 0xe1, 0xef, 0xbd, 0x8a, 0xd6, 0xdc, 0x0b, 0x1b, 0x34, 0x06, 0x05, 0x11, 0x0f, 0xfa, 0xef, 0xdb, 0xc2, 0x0e, 0x43, 0x39, 0x24, 0xc9, 0xed, 0xbd, 0xb0, 0x3b, 0xb3, 0x92, 0xdb, 0x32, 0xcd, 0xbf, 0x34, 0xc6, 0xff, 0x36, 0x4e, 0xb4, 0x0d, 0xf4, 0x2a, 0xf5, 0xc8, 0xb1, 0x31, 0xfb, 0x19, 0x21, 0x7f, 0xd3, 0xec, 0xb4, 0xcd, 0xa9, 0x0d, 0x3a, 0x47, 0x45, 0xfc, 0x62, 0x12, 0xc6, 0x1a, 0xe2, 0xac, 0x45, 0xd9, 0x2b, 0x99, 0xf1, 0x59, 0x0f, 0x2c, 0x67, 0x4c, 0x6a, 0x7e, 0xe0, 0x16, 0x56, 0xfb, 0x8c, 0x14, 0x5f, 0x52, 0xd8, 0xc4, 0x24, 0x5f, 0xf7, 0x39, 0x35, 0xa6, 0x3f, 0x72, 0xd9, 0x85, 0x2a, 0x20, 0x46, 0xf5, 0x5a, 0x09, 0x33, 0xd5, 0x13, 0x38, 0x5d, 0xc1, 0xe8, 0x9e, 0xd1, 0x17, 0xa9, 0xe1, 0xe5, 0xc7, 0xca, 0xa1, 0x1c, 0xc4, 0x04, 0x05, 0xdf, 0x26, 0x00, 0x9a, 0xaf, 0xcf, 0xb9, 0x09, 0xbd, 0x04, 0x9b, 0xd4, 0xcb, 0xf9, 0xc0, 0x89, 0x8c, 0x0d, 0x60, 0x22, 0xe0, 0x11, 0xff, 0xdf, 0xd5, 0x9d, 0xa0, 0x1d, 0x1d, 0x02, 0x2a, 0xa8, 0xbf, 0x33, 0xa2, 0xee, 0x27, 0xca, 0x0e, 0xb2, 0x96, 0x1d, 0xb0, 0x3b, 0xd1, 0xc2, 0x12, 0x4b, 0xef, 0x24, 0x21, 0x2c, 0xe1, 0xa6, 0x1d, 0xaa, 0xbb, 0xd7, 0xdf, 0x02, 0x37, 0x5b, 0x2e, 0x40, 0xd9, 0xa4, 0xd7, 0xfa, 0xfd, 0xc9, 0x39, 0xc6, 0xa4, 0xb2, 0x94, 0x2c, 0xad, 0xe8, 0x34, 0x66, 0xdd, 0x5e, 0xe7, 0xef, 0x14, 0xcf, 0xd2, 0x14, 0x40, 0x27, 0xdc, 0xcf, 0xe0, 0x13, 0xde, 0x38, 0x22, 0xf4, 0x58, 0xd4, 0xd0, 0xae, 0xcc, 0x09, 0x3a, 0x08, 0xd0, 0xea, 0x67, 0xee, 0xde, 0xe7, 0x2e, 0x23, 0xee, 0xde, 0xd6, 0x02, 0x39, 0xf0, 0xa7, 0xfc, 0x16, 0xba, 0x14, 0x14, 0xef, 0x76, 0xad, 0x57, 0xa1, 0xbe, 0x04, 0x98, 0xdc, 0xa6, 0xfd, 0xca, 0x0a, 0xd2, 0xdd, 0x30, 0x24, 0xd7, 0xc7, 0x23, 0x6e, 0x76, 0xa2, 0xc4, 0x49, 0x1b, 0xb7, 0x99, 0xa1, 0xbc, 0x1e, 0xd5, 0x4c, 0x2b, 0x2d, 0x16, 0xbc, 0x30, 0x5f, 0x2a, 0xe5, 0xba, 0xde, 0x37, 0x5e, 0x62, 0x2b, 0xb4, 0x10, 0x40, 0x5d, 0x56, 0x20, 0xe1, 0x5d, 0xf4, 0xb6, 0x8f, 0xf5, 0xb3, 0x11, 0xd5, 0x7f, 0x59, 0x53, 0x47, 0xd0, 0x62, 0xc1, 0x8c, 0xf6, 0xd6, 0xbe, 0xbf, 0xaf, 0xcc, 0xc0, 0x08, 0x4b, 0x57, 0xa9, 0xbf, 0x9a, 0x76, 0x5b, 0x44, 0x89, 0xbf, 0x47, 0x34, 0x03, 0xab, 0xd7, 0x27, 0x12, 0xdc, 0x27, 0x29, 0x11, 0x09, 0xd2, 0x4f, 0x11, 0x70, 0x0e, 0xd9, 0xf3, 0x35, 0x63, 0x74, 0x4b, 0xb1, 0xe9, 0x32, 0xe2, 0x04, 0xb9, 0xb2, 0xf9, 0x46, 0xca, 0xee, 0x07, 0x0a, 0xf8, 0x55, 0xcf, 0xae, 0x00, 0xa8, 0x08, 0x10, 0xc9, 0x15, 0xb1, 0xe8, 0x1a, 0x1a, 0x36, 0xf8, 0x00, 0x4c, 0x3d, 0xe2, 0xab, 0x97, 0xce, 0xe5, 0xc6, 0x30, 0xe5, 0xb9, 0x96, 0xe9, 0xee, 0x11, 0xee, 0xd9, 0x12, 0x20, 0xf8, 0x0f, 0x8e, 0xc2, 0xc8, 0x12, 0xb8, 0x9d, 0x59, 0x56, 0xa2, 0x1b, 0x39, 0xc1, 0x1c, 0x99, 0x44, 0x47, 0x43, 0x38, 0xdf, 0x3e, 0x15, 0xf1, 0xf8, 0x84, 0xfa, 0xf7, 0xcf, 0xd5, 0x01, 0xbd, 0x34, 0x48, 0xc1, 0xd6, 0xf3, 0xd1, 0x33, 0xe9, 0xe7, 0x03, 0xe5, 0xb5, 0xa1, 0x05, 0x13, 0xfb, 0xd7, 0xc4, 0x94, 0xe4, 0x34, 0x0f, 0x89, 0xb8, 0x1f, 0xfc, 0x11, 0xf3, 0xe4, 0xe5, 0xa2, 0xb7, 0x1c, 0x01, 0x8c, 0xef, 0xc4, 0xcb, 0x1d, 0x54, 0xc5, 0xbb, 0x1b, 0x28, 0x13, 0x1f, 0x04, 0xdd, 0x05, 0xd7, 0xa5, 0x3b, 0xe8, 0xa2, 0xe8, 0xf7, 0xfb, 0xe9, 0x94, 0xf3, 0xb1, 0x6f, 0x0a, 0xe2, 0x26, 0x26, 0x0c, 0xb9, 0xd8, 0x1d, 0x88, 0xab, 0xb9, 0xa1, 0x32, 0xdc, 0x02, 0x62, 0x33, 0x13, 0xba, 0x2b, 0xe3, 0xfe, 0xde, 0x5c, 0x24, 0xd5, 0xa1, 0xcb, 0xfa, 0xfc, 0x0e, 0xe8, 0xae, 0x34, 0xf9, 0xd3, 0x3e, 0x30, 0x2d, 0x4e, 0xfc, 0x9c, 0x45, 0x5c, 0xd1, 0x47, 0x2e, 0xec, 0x60, 0xe1, 0x56, 0x4f, 0xc6, 0x31, 0xfd, 0x96, 0xfa, 0xd8, 0x0a, 0xd1, 0x12, 0x29, 0xfe, 0xe8, 0xcd, 0xa6, 0xe6, 0xc4, 0xf9, 0xd4, 0xe5, 0x13, 0xb8, 0x0a, 0x01, 0x26, 0xcc, 0x1d, 0xc4, 0xe0, 0xe3, 0xdf, 0xd5, 0xc2, 0xc9, 0x9e, 0xe4, 0xb8, 0xba, 0x18, 0xd8, 0xdb, 0xe6, 0xda, 0xe1, 0x02, 0xd9, 0x0b, 0xf9, 0xa1, 0xb0, 0xb2, 0xe9, 0x92, 0x20, 0x10, 0xba, 0x0d, 0xe7, 0xcb, 0xaf, 0xc8, 0xa0, 0x02, 0xe7, 0xb5, 0xd8, 0x42, 0x0e, 0x2b, 0xe0, 0xbb, 0x59, 0x04, 0x21, 0x07, 0xfa, 0x1a, 0x2b, 0x16, 0x06, 0xe0, 0x0f, 0x30, 0x1e, 0x44, 0xee, 0x1c, 0x0c, 0x0c, 0xff, 0x21, 0xfe, 0xda, 0xc4, 0x09, 0x4b, 0x48, 0x30, 0x34, 0xb5, 0x1b, 0xc8, 0x0f, 0x4b, 0x02, 0x3b, 0xbe, 0xdc, 0x23, 0x13, 0x1e, 0xf1, 0xf2, 0x1c, 0xe4, 0x21, 0xf2, 0xe7, 0x49, 0xba, 0xc6, 0x46, 0xf8, 0xcc, 0x3f, 0x53, 0x32, 0xe6, 0xd1, 0xe3, 0xfe, 0xf3, 0x81, 0xce, 0x32, 0xec, 0xd1, 0x19, 0xf3, 0x22, 0xc8, 0xd0, 0x00, 0xc0, 0xeb, 0xeb, 0x52, 0xf0, 0xef, 0x98, 0x09, 0x32, 0xff, 0xea, 0x0c, 0xda, 0xd8, 0x08, 0xd2, 0x1a, 0xd0, 0xd1, 0x19, 0x12, 0xcd, 0xc4, 0xc8, 0xef, 0xbb, 0xf9, 0x07, 0xde, 0xfb, 0x03, 0xce, 0xf2, 0xe7, 0xf3, 0xd0, 0xdb, 0x05, 0x1f, 0x17, 0x22, 0x03, 0xda, 0xa3, 0xf9, 0x39, 0xd2, 0x27, 0xb0, 0x0c, 0xcd, 0xec, 0xf7, 0xd7, 0xc7, 0xee, 0x0a, 0xea, 0x28, 0xba, 0xf3, 0xb6, 0x4d, 0x1f, 0xe6, 0xc2, 0x0d, 0x3c, 0x0f, 0x3f, 0xd6, 0x2a, 0x28, 0x2b, 0xbe, 0x27, 0x02, 0xec, 0xee, 0xda, 0x33, 0x01, 0xca, 0x24, 0xd8, 0xf5, 0xcd, 0xbc, 0x50, 0xf8, 0x2b, 0x8f, 0xcf, 0x04, 0x0d, 0xd5, 0xcd, 0xe6, 0xe4, 0xd3, 0xa2, 0xe2, 0xce, 0x43, 0xb7, 0xc1, 0x2c, 0xcb, 0xb8, 0x53, 0xee, 0xfb, 0xbe, 0xb4};
int32_t bias3[10] = {943, -301, 85, -445, -1154, -177, -784, -1028, -125, 288, };
int32_t bias2[64] = {5780, -1385, -8969, 4010, -1148, 1401, 6781, 8828, -17395, 1037, -2869, 8409, 2017, 30991, -2150, 4129, 2483, 1914, -8315, 4011, 15669, -22373, 19648, -23686, 14859, -14118, 6606, 1863, -1087, 4118, 27305, 23784, 10336, 2497, 9159, 1503, 10076, 1075, 188, 3718, 20347, 11861, 2994, -22776, -2528, -1876, -6328, 18542, 26930, 10627, 8461, 834, 8637, 1720, 1795, -8358, 11601, 2951, 15249, 1511, 1602, -12772, 23, 3307, };
