#include <stdint.h>


#define NNoutput &buffer0[260];

/* sram:51968, flash:45392 */
#define PEAK_MEM 51968
#define MODEL_SIZE 45392

static signed char buffer[51968];
static signed char *buffer0 = &buffer[0];
static int16_t *sbuf = (int16_t *)&buffer[12800];
static int16_t *kbuf = (int16_t *)&buffer[15104];
static const int SBuffer_size = 2304;
static const int KBuffer_size = 36864;

static const unsigned char weight0[1152] = {0x0c, 0xbe, 0x11, 0x1a, 0xfb, 0x12, 0x12, 0x28, 0xe6, 0x4d, 0xee, 0xb6, 0xb6, 0xf8, 0xdc, 0xbf, 0x03, 0x08, 0x1e, 0xe0, 0xd8, 0xb7, 0xe4, 0x37, 0xc2, 0x0c, 0x38, 0x45, 0x26, 0xbb, 0xfc, 0x09, 0xee, 0xa2, 0x72, 0x0d, 0x22, 0xc8, 0xe8, 0xb1, 0xc5, 0x0b, 0xd1, 0xa7, 0xf8, 0x1e, 0x28, 0x20, 0x9c, 0x91, 0x72, 0x9d, 0x41, 0xf9, 0x0a, 0x35, 0xdb, 0x35, 0xd3, 0xed, 0xd8, 0xde, 0x47, 0xf4, 0x91, 0x5e, 0x81, 0xce, 0xfc, 0x14, 0xf4, 0x53, 0xc1, 0x44, 0xc6, 0xee, 0x26, 0x36, 0xe8, 0x4e, 0x4f, 0xc2, 0x62, 0x5e, 0xe6, 0xc3, 0x18, 0xdc, 0xf8, 0x10, 0x17, 0x08, 0x1b, 0xd6, 0x40, 0xe5, 0xfd, 0xd2, 0xff, 0xbb, 0xd1, 0xec, 0xf1, 0xfb, 0x7f, 0xd0, 0x3e, 0x5d, 0xbf, 0xc9, 0xf9, 0xdb, 0xc9, 0xec, 0x32, 0xf6, 0x11, 0xec, 0x34, 0x0f, 0x14, 0x04, 0x50, 0x0b, 0x3e, 0xca, 0x06, 0xff, 0x09, 0xf2, 0xf6, 0xbc, 0xfd, 0x1f, 0xc6, 0xe9, 0xe9, 0xe0, 0x05, 0xd2, 0x24, 0x0c, 0xf7, 0x26, 0xe0, 0xbe, 0xe9, 0x37, 0x2b, 0xf1, 0x4c, 0xde, 0x42, 0xe9, 0xf6, 0xe4, 0x2e, 0xc9, 0x07, 0x07, 0xa0, 0xde, 0xbe, 0xe8, 0x81, 0x65, 0xe5, 0x02, 0xe9, 0x0b, 0xb8, 0xcd, 0xdd, 0x00, 0xd7, 0x1f, 0x05, 0xd3, 0xed, 0xfd, 0xef, 0xfd, 0x2f, 0xfb, 0x1c, 0xf7, 0x32, 0x4f, 0x0d, 0x29, 0x33, 0x03, 0xad, 0x0c, 0xb6, 0x47, 0x12, 0x98, 0x84, 0x14, 0x0f, 0xcb, 0xaa, 0xf2, 0x24, 0x16, 0x18, 0xfc, 0xf2, 0xfa, 0x1b, 0xf2, 0xec, 0x25, 0x1f, 0xe8, 0xf5, 0xf1, 0xe4, 0xe9, 0x40, 0xf8, 0x32, 0xf7, 0x3f, 0x5a, 0x25, 0xf3, 0x30, 0x04, 0xf8, 0x48, 0x00, 0x98, 0xb6, 0x3a, 0x2d, 0x53, 0x5a, 0xbb, 0xe4, 0xce, 0x3a, 0x05, 0xf2, 0x19, 0xf3, 0xff, 0x27, 0x9c, 0x43, 0x17, 0xc5, 0x49, 0x71, 0xef, 0xf3, 0x49, 0x2d, 0xc1, 0xea, 0xe2, 0xe3, 0xed, 0x5c, 0x6a, 0xf7, 0xb5, 0x20, 0xc0, 0xbe, 0x26, 0x5e, 0xbb, 0xbc, 0xad, 0xba, 0x26, 0x3f, 0x3d, 0x86, 0x3d, 0x7f, 0xeb, 0x57, 0x15, 0xb4, 0xb6, 0x06, 0xf3, 0x29, 0x1d, 0xde, 0x20, 0x04, 0xb3, 0xeb, 0xfd, 0xc3, 0xff, 0x0b, 0x14, 0x30, 0x06, 0xd1, 0x09, 0xb6, 0xf6, 0xfb, 0xf6, 0xfc, 0xc7, 0x35, 0x0f, 0x78, 0x6e, 0xd2, 0xdc, 0x25, 0xb3, 0xc1, 0x44, 0xbf, 0x3d, 0xf4, 0x1e, 0x14, 0x09, 0xcd, 0xfe, 0xb8, 0xcc, 0x2d, 0xc5, 0xc9, 0xf8, 0xb7, 0x0a, 0x6a, 0x14, 0x3e, 0x35, 0x08, 0x22, 0xf0, 0x36, 0xf9, 0x24, 0x65, 0x4c, 0xef, 0xf0, 0xc6, 0xcd, 0xa8, 0xdf, 0xa0, 0x98, 0xc5, 0x81, 0x5d, 0x64, 0xc6, 0xb5, 0xf6, 0xe8, 0x99, 0x22, 0xbb, 0xb1, 0xb2, 0x27, 0x94, 0xb8, 0x40, 0x4e, 0xbf, 0xe4, 0xb5, 0x77, 0x08, 0xd3, 0x9f, 0xc4, 0xde, 0xca, 0xca, 0x18, 0x44, 0xe6, 0xfe, 0xeb, 0x1d, 0x6f, 0x7f, 0xbd, 0xdf, 0x21, 0xac, 0x70, 0x23, 0xd1, 0x5d, 0xec, 0x91, 0x50, 0x59, 0x77, 0xe6, 0xf6, 0xe9, 0x0e, 0x1e, 0x4e, 0x39, 0xa3, 0x34, 0x48, 0x31, 0xed, 0xc3, 0xf7, 0x2d, 0xbf, 0x46, 0xf6, 0x19, 0x16, 0xa7, 0xf2, 0x16, 0x65, 0x23, 0xfe, 0xfd, 0x15, 0xe8, 0x1a, 0xf9, 0x19, 0xe2, 0xa7, 0xb0, 0x45, 0x03, 0x17, 0x1c, 0xec, 0x34, 0x45, 0x47, 0xed, 0x06, 0x94, 0x81, 0x03, 0xa7, 0x3c, 0x0e, 0x60, 0xbc, 0xd6, 0xf4, 0x3e, 0x02, 0xbd, 0x9f, 0xf6, 0x26, 0xef, 0x2c, 0x18, 0xe8, 0xe6, 0xd7, 0x26, 0x4d, 0xec, 0xe0, 0xc7, 0x6b, 0xb8, 0x94, 0xb1, 0xfa, 0x5a, 0x32, 0x03, 0xe5, 0xab, 0xe4, 0x29, 0x1a, 0x10, 0x00, 0xd8, 0x01, 0xe4, 0x08, 0x2e, 0xf1, 0xcd, 0xdb, 0x24, 0x36, 0xb5, 0xe7, 0xd5, 0xac, 0xf7, 0xcb, 0x18, 0x2a, 0xc8, 0xf5, 0xe8, 0xf7, 0xeb, 0x00, 0xd3, 0x45, 0xed, 0x2a, 0xfb, 0x42, 0xfc, 0x07, 0xf0, 0x1c, 0xf7, 0x23, 0xa7, 0xcb, 0x2d, 0x12, 0x46, 0xe2, 0x31, 0x47, 0x14, 0xb4, 0xfc, 0x17, 0x1c, 0x3d, 0xb9, 0xb9, 0xfb, 0x46, 0x0d, 0x04, 0xeb, 0xf3, 0x7f, 0x2c, 0x07, 0xaa, 0x4a, 0xed, 0x78, 0x2b, 0xf6, 0xe1, 0xd7, 0xea, 0xc5, 0x32, 0xfa, 0xd8, 0x93, 0xc4, 0x13, 0x60, 0xe2, 0x08, 0xce, 0xeb, 0xe3, 0x39, 0x07, 0xf9, 0x0a, 0x18, 0x18, 0x63, 0xc0, 0xd8, 0xf9, 0x04, 0x19, 0x13, 0x49, 0x0e, 0x02, 0xeb, 0x0f, 0x55, 0x0b, 0xe2, 0x0e, 0x23, 0x2c, 0xd2, 0xcc, 0x23, 0xf9, 0x0c, 0x0e, 0x1e, 0x20, 0xee, 0xf2, 0xd5, 0xd1, 0xcc, 0x24, 0x07, 0x2f, 0xda, 0x2d, 0x7f, 0x31, 0xb2, 0xa6, 0xf0, 0xb9, 0x27, 0x18, 0xc3, 0xf5, 0x45, 0x1a, 0x20, 0x66, 0x48, 0xbb, 0xed, 0xe3, 0xc4, 0x54, 0xd1, 0xff, 0x06, 0x0e, 0xee, 0x5c, 0x3c, 0xa6, 0xf4, 0x68, 0xa9, 0xfa, 0xf3, 0xbc, 0x54, 0x16, 0xf2, 0xf8, 0x39, 0xe7, 0x81, 0xc3, 0x43, 0xb8, 0xdb, 0xcc, 0x53, 0xde, 0x08, 0xfc, 0xd5, 0x30, 0x2c, 0xd9, 0x47, 0x24, 0xd3, 0xc9, 0xfe, 0xe0, 0x99, 0x0d, 0xe2, 0xb5, 0xb5, 0xcb, 0xbf, 0x0b, 0x40, 0xff, 0xf3, 0x4c, 0x8a, 0x10, 0xf4, 0xb1, 0xe4, 0x13, 0x16, 0xd1, 0xd1, 0x0f, 0x0d, 0x0c, 0xd3, 0x40, 0x0e, 0xd5, 0xe8, 0x03, 0x2b, 0x0e, 0x0a, 0x31, 0x04, 0xf2, 0xdb, 0x23, 0x05, 0xed, 0x04, 0xf9, 0xff, 0xfb, 0x13, 0xf4, 0x11, 0xcb, 0x0c, 0x00, 0xfb, 0xf4, 0xe3, 0xd9, 0x11, 0xe2, 0xf5, 0xfb, 0xd6, 0x1e, 0xf7, 0x27, 0x2f, 0x14, 0x53, 0x0b, 0x04, 0xc0, 0x0d, 0x0b, 0x28, 0x17, 0x3b, 0x2a, 0x3e, 0xc4, 0xec, 0xcd, 0xf0, 0x1e, 0xde, 0x13, 0x16, 0xe3, 0x14, 0xd0, 0xc3, 0xb9, 0x7f, 0x23, 0xf8, 0x9f, 0xcf, 0x47, 0x74, 0x36, 0xe1, 0x3d, 0xec, 0xf1, 0xfd, 0xf9, 0xfe, 0xed, 0x03, 0xde, 0xba, 0x0c, 0xcd, 0xfb, 0x57, 0x17, 0x4b, 0xd6, 0xd5, 0x38, 0x13, 0x18, 0xde, 0xff, 0x51, 0xf4, 0xb8, 0x32, 0x0b, 0x31, 0xd7, 0xd6, 0xb5, 0xed, 0x3f, 0xf9, 0xee, 0x1c, 0x14, 0xd7, 0x47, 0xe0, 0xe0, 0x56, 0x44, 0x1c, 0xd3, 0x11, 0x10, 0x7d, 0xee, 0x06, 0x56, 0xe2, 0x3f, 0x25, 0xd5, 0xff, 0x5f, 0xd3, 0x22, 0x06, 0xe2, 0x2a, 0xdb, 0x4b, 0xa4, 0x02, 0xf9, 0xd1, 0x38, 0x0d, 0xbb, 0xc3, 0x3b, 0xd4, 0x48, 0x25, 0xad, 0xfb, 0x4b, 0x10, 0xe8, 0xec, 0x3a, 0x30, 0x81, 0x05, 0xe2, 0x07, 0xf0, 0x9e, 0xe6, 0x24, 0xb3, 0x00, 0x24, 0xee, 0x00, 0x00, 0x93, 0x2b, 0xfa, 0x11, 0x59, 0x4b, 0x42, 0x77, 0x1c, 0xee, 0x7d, 0x1f, 0xc1, 0xb5, 0xbb, 0x20, 0x8c, 0xe4, 0xca, 0xe4, 0xf7, 0xab, 0x18, 0x62, 0x7f, 0xec, 0x04, 0x64, 0x02, 0x6d, 0xb1, 0x29, 0x61, 0xa2, 0x32, 0x42, 0xcd, 0x28, 0x03, 0xda, 0x13, 0xb8, 0x1e, 0xd1, 0xf3, 0xf9, 0xd0, 0x22, 0xe6, 0x81, 0xf8, 0x2f, 0xb1, 0x1f, 0x20, 0xb2, 0x17, 0xdf, 0x00, 0x14, 0x9e, 0xdb, 0x16, 0x34, 0xe5, 0x03, 0xe8, 0x59, 0xf1, 0xf0, 0x00, 0x23, 0xf0, 0x34, 0xf3, 0x33, 0x4c, 0xac, 0x66, 0x81, 0x5c, 0xa7, 0xf2, 0x9e, 0xfa, 0xed, 0xa8, 0x06, 0x5e, 0x17, 0xf7, 0x02, 0x0f, 0xfc, 0xae, 0x90, 0x18, 0xca, 0xf0, 0x1c, 0x5b, 0x3b, 0x51, 0x14, 0x75, 0x38, 0x04, 0x4b, 0xdc, 0xc2, 0xda, 0xfe, 0x32, 0xa1, 0x27, 0xb7, 0xd6, 0x15, 0x19, 0xa5, 0x0a, 0xfc, 0xf4, 0x1c, 0x50, 0x31, 0x2c, 0x24, 0x61, 0x2c, 0xe0, 0x28, 0x36, 0xb6, 0x19, 0xc5, 0x04, 0xb8, 0x3e, 0x25, 0xda, 0xe8, 0xf9, 0xd1, 0x63, 0xee, 0xfb, 0x81, 0x74, 0xe7, 0xc7, 0xd7, 0x98, 0x26, 0x3a, 0x1b, 0x44, 0xdb, 0xbe, 0xdd, 0xd4, 0x9a, 0x24, 0x58, 0xa9, 0x20, 0x19, 0x2f, 0x54, 0x1b, 0x3b, 0xa7, 0x1a, 0x3a, 0x38, 0x0e, 0xdb, 0x0b, 0xe9, 0xf5, 0x96, 0xe2, 0xbe, 0x4d, 0xee, 0xe1, 0x2d, 0xc6, 0xf1, 0x29, 0xc1, 0x17, 0xbb, 0x38, 0x22, 0x9e, 0x55, 0x4a, 0xd9, 0x8d, 0x92, 0xf0, 0x36, 0x4a, 0x18, 0x59, 0xd9, 0x24, 0xd5, 0x16, 0x30, 0xab, 0xc4, 0x4f, 0xcd, 0x1e, 0x18, 0xf8, 0x50, 0x13, 0xf7, 0x91, 0x2b, 0x2e, 0x2a, 0x4e, 0x98, 0xfb, 0xa3, 0xd8, 0x6e, 0xc7, 0xfd, 0x3f, 0xb2, 0xfc, 0xc0, 0x25, 0x27, 0x3f, 0x9b, 0x38, 0xfe, 0xc6, 0x53, 0x57, 0xba, 0x7f, 0xaf, 0xbc, 0x73, 0xbd, 0x1a, 0x4c, 0x00, 0xb7, 0xd6, 0x20, 0xc1, 0xb5, 0xd3, 0xe4, 0x64, 0xb8, 0x2e, 0xf1, 0xcb, 0x0f, 0x28, 0x95, 0x4b, 0x5e, 0xaf, 0xf3, 0x29, 0xd4, };
static const float weight_fp0[1152] = {12.0, -66.0, 17.0, 26.0, -5.0, 18.0, 18.0, 40.0, -26.0, 77.0, -18.0, -74.0, -74.0, -8.0, -36.0, -65.0, 3.0, 8.0, 30.0, -32.0, -40.0, -73.0, -28.0, 55.0, -62.0, 12.0, 56.0, 69.0, 38.0, -69.0, -4.0, 9.0, -18.0, -94.0, 114.0, 13.0, 34.0, -56.0, -24.0, -79.0, -59.0, 11.0, -47.0, -89.0, -8.0, 30.0, 40.0, 32.0, -100.0, -111.0, 114.0, -99.0, 65.0, -7.0, 10.0, 53.0, -37.0, 53.0, -45.0, -19.0, -40.0, -34.0, 71.0, -12.0, -111.0, 94.0, -127.0, -50.0, -4.0, 20.0, -12.0, 83.0, -63.0, 68.0, -58.0, -18.0, 38.0, 54.0, -24.0, 78.0, 79.0, -62.0, 98.0, 94.0, -26.0, -61.0, 24.0, -36.0, -8.0, 16.0, 23.0, 8.0, 27.0, -42.0, 64.0, -27.0, -3.0, -46.0, -1.0, -69.0, -47.0, -20.0, -15.0, -5.0, 127.0, -48.0, 62.0, 93.0, -65.0, -55.0, -7.0, -37.0, -55.0, -20.0, 50.0, -10.0, 17.0, -20.0, 52.0, 15.0, 20.0, 4.0, 80.0, 11.0, 62.0, -54.0, 6.0, -1.0, 9.0, -14.0, -10.0, -68.0, -3.0, 31.0, -58.0, -23.0, -23.0, -32.0, 5.0, -46.0, 36.0, 12.0, -9.0, 38.0, -32.0, -66.0, -23.0, 55.0, 43.0, -15.0, 76.0, -34.0, 66.0, -23.0, -10.0, -28.0, 46.0, -55.0, 7.0, 7.0, -96.0, -34.0, -66.0, -24.0, -127.0, 101.0, -27.0, 2.0, -23.0, 11.0, -72.0, -51.0, -35.0, 0.0, -41.0, 31.0, 5.0, -45.0, -19.0, -3.0, -17.0, -3.0, 47.0, -5.0, 28.0, -9.0, 50.0, 79.0, 13.0, 41.0, 51.0, 3.0, -83.0, 12.0, -74.0, 71.0, 18.0, -104.0, -124.0, 20.0, 15.0, -53.0, -86.0, -14.0, 36.0, 22.0, 24.0, -4.0, -14.0, -6.0, 27.0, -14.0, -20.0, 37.0, 31.0, -24.0, -11.0, -15.0, -28.0, -23.0, 64.0, -8.0, 50.0, -9.0, 63.0, 90.0, 37.0, -13.0, 48.0, 4.0, -8.0, 72.0, 0.0, -104.0, -74.0, 58.0, 45.0, 83.0, 90.0, -69.0, -28.0, -50.0, 58.0, 5.0, -14.0, 25.0, -13.0, -1.0, 39.0, -100.0, 67.0, 23.0, -59.0, 73.0, 113.0, -17.0, -13.0, 73.0, 45.0, -63.0, -22.0, -30.0, -29.0, -19.0, 92.0, 106.0, -9.0, -75.0, 32.0, -64.0, -66.0, 38.0, 94.0, -69.0, -68.0, -83.0, -70.0, 38.0, 63.0, 61.0, -122.0, 61.0, 127.0, -21.0, 87.0, 21.0, -76.0, -74.0, 6.0, -13.0, 41.0, 29.0, -34.0, 32.0, 4.0, -77.0, -21.0, -3.0, -61.0, -1.0, 11.0, 20.0, 48.0, 6.0, -47.0, 9.0, -74.0, -10.0, -5.0, -10.0, -4.0, -57.0, 53.0, 15.0, 120.0, 110.0, -46.0, -36.0, 37.0, -77.0, -63.0, 68.0, -65.0, 61.0, -12.0, 30.0, 20.0, 9.0, -51.0, -2.0, -72.0, -52.0, 45.0, -59.0, -55.0, -8.0, -73.0, 10.0, 106.0, 20.0, 62.0, 53.0, 8.0, 34.0, -16.0, 54.0, -7.0, 36.0, 101.0, 76.0, -17.0, -16.0, -58.0, -51.0, -88.0, -33.0, -96.0, -104.0, -59.0, -127.0, 93.0, 100.0, -58.0, -75.0, -10.0, -24.0, -103.0, 34.0, -69.0, -79.0, -78.0, 39.0, -108.0, -72.0, 64.0, 78.0, -65.0, -28.0, -75.0, 119.0, 8.0, -45.0, -97.0, -60.0, -34.0, -54.0, -54.0, 24.0, 68.0, -26.0, -2.0, -21.0, 29.0, 111.0, 127.0, -67.0, -33.0, 33.0, -84.0, 112.0, 35.0, -47.0, 93.0, -20.0, -111.0, 80.0, 89.0, 119.0, -26.0, -10.0, -23.0, 14.0, 30.0, 78.0, 57.0, -93.0, 52.0, 72.0, 49.0, -19.0, -61.0, -9.0, 45.0, -65.0, 70.0, -10.0, 25.0, 22.0, -89.0, -14.0, 22.0, 101.0, 35.0, -2.0, -3.0, 21.0, -24.0, 26.0, -7.0, 25.0, -30.0, -89.0, -80.0, 69.0, 3.0, 23.0, 28.0, -20.0, 52.0, 69.0, 71.0, -19.0, 6.0, -108.0, -127.0, 3.0, -89.0, 60.0, 14.0, 96.0, -68.0, -42.0, -12.0, 62.0, 2.0, -67.0, -97.0, -10.0, 38.0, -17.0, 44.0, 24.0, -24.0, -26.0, -41.0, 38.0, 77.0, -20.0, -32.0, -57.0, 107.0, -72.0, -108.0, -79.0, -6.0, 90.0, 50.0, 3.0, -27.0, -85.0, -28.0, 41.0, 26.0, 16.0, 0.0, -40.0, 1.0, -28.0, 8.0, 46.0, -15.0, -51.0, -37.0, 36.0, 54.0, -75.0, -25.0, -43.0, -84.0, -9.0, -53.0, 24.0, 42.0, -56.0, -11.0, -24.0, -9.0, -21.0, 0.0, -45.0, 69.0, -19.0, 42.0, -5.0, 66.0, -4.0, 7.0, -16.0, 28.0, -9.0, 35.0, -89.0, -53.0, 45.0, 18.0, 70.0, -30.0, 49.0, 71.0, 20.0, -76.0, -4.0, 23.0, 28.0, 61.0, -71.0, -71.0, -5.0, 70.0, 13.0, 4.0, -21.0, -13.0, 127.0, 44.0, 7.0, -86.0, 74.0, -19.0, 120.0, 43.0, -10.0, -31.0, -41.0, -22.0, -59.0, 50.0, -6.0, -40.0, -109.0, -60.0, 19.0, 96.0, -30.0, 8.0, -50.0, -21.0, -29.0, 57.0, 7.0, -7.0, 10.0, 24.0, 24.0, 99.0, -64.0, -40.0, -7.0, 4.0, 25.0, 19.0, 73.0, 14.0, 2.0, -21.0, 15.0, 85.0, 11.0, -30.0, 14.0, 35.0, 44.0, -46.0, -52.0, 35.0, -7.0, 12.0, 14.0, 30.0, 32.0, -18.0, -14.0, -43.0, -47.0, -52.0, 36.0, 7.0, 47.0, -38.0, 45.0, 127.0, 49.0, -78.0, -90.0, -16.0, -71.0, 39.0, 24.0, -61.0, -11.0, 69.0, 26.0, 32.0, 102.0, 72.0, -69.0, -19.0, -29.0, -60.0, 84.0, -47.0, -1.0, 6.0, 14.0, -18.0, 92.0, 60.0, -90.0, -12.0, 104.0, -87.0, -6.0, -13.0, -68.0, 84.0, 22.0, -14.0, -8.0, 57.0, -25.0, -127.0, -61.0, 67.0, -72.0, -37.0, -52.0, 83.0, -34.0, 8.0, -4.0, -43.0, 48.0, 44.0, -39.0, 71.0, 36.0, -45.0, -55.0, -2.0, -32.0, -103.0, 13.0, -30.0, -75.0, -75.0, -53.0, -65.0, 11.0, 64.0, -1.0, -13.0, 76.0, -118.0, 16.0, -12.0, -79.0, -28.0, 19.0, 22.0, -47.0, -47.0, 15.0, 13.0, 12.0, -45.0, 64.0, 14.0, -43.0, -24.0, 3.0, 43.0, 14.0, 10.0, 49.0, 4.0, -14.0, -37.0, 35.0, 5.0, -19.0, 4.0, -7.0, -1.0, -5.0, 19.0, -12.0, 17.0, -53.0, 12.0, 0.0, -5.0, -12.0, -29.0, -39.0, 17.0, -30.0, -11.0, -5.0, -42.0, 30.0, -9.0, 39.0, 47.0, 20.0, 83.0, 11.0, 4.0, -64.0, 13.0, 11.0, 40.0, 23.0, 59.0, 42.0, 62.0, -60.0, -20.0, -51.0, -16.0, 30.0, -34.0, 19.0, 22.0, -29.0, 20.0, -48.0, -61.0, -71.0, 127.0, 35.0, -8.0, -97.0, -49.0, 71.0, 116.0, 54.0, -31.0, 61.0, -20.0, -15.0, -3.0, -7.0, -2.0, -19.0, 3.0, -34.0, -70.0, 12.0, -51.0, -5.0, 87.0, 23.0, 75.0, -42.0, -43.0, 56.0, 19.0, 24.0, -34.0, -1.0, 81.0, -12.0, -72.0, 50.0, 11.0, 49.0, -41.0, -42.0, -75.0, -19.0, 63.0, -7.0, -18.0, 28.0, 20.0, -41.0, 71.0, -32.0, -32.0, 86.0, 68.0, 28.0, -45.0, 17.0, 16.0, 125.0, -18.0, 6.0, 86.0, -30.0, 63.0, 37.0, -43.0, -1.0, 95.0, -45.0, 34.0, 6.0, -30.0, 42.0, -37.0, 75.0, -92.0, 2.0, -7.0, -47.0, 56.0, 13.0, -69.0, -61.0, 59.0, -44.0, 72.0, 37.0, -83.0, -5.0, 75.0, 16.0, -24.0, -20.0, 58.0, 48.0, -127.0, 5.0, -30.0, 7.0, -16.0, -98.0, -26.0, 36.0, -77.0, 0.0, 36.0, -18.0, 0.0, 0.0, -109.0, 43.0, -6.0, 17.0, 89.0, 75.0, 66.0, 119.0, 28.0, -18.0, 125.0, 31.0, -63.0, -75.0, -69.0, 32.0, -116.0, -28.0, -54.0, -28.0, -9.0, -85.0, 24.0, 98.0, 127.0, -20.0, 4.0, 100.0, 2.0, 109.0, -79.0, 41.0, 97.0, -94.0, 50.0, 66.0, -51.0, 40.0, 3.0, -38.0, 19.0, -72.0, 30.0, -47.0, -13.0, -7.0, -48.0, 34.0, -26.0, -127.0, -8.0, 47.0, -79.0, 31.0, 32.0, -78.0, 23.0, -33.0, 0.0, 20.0, -98.0, -37.0, 22.0, 52.0, -27.0, 3.0, -24.0, 89.0, -15.0, -16.0, 0.0, 35.0, -16.0, 52.0, -13.0, 51.0, 76.0, -84.0, 102.0, -127.0, 92.0, -89.0, -14.0, -98.0, -6.0, -19.0, -88.0, 6.0, 94.0, 23.0, -9.0, 2.0, 15.0, -4.0, -82.0, -112.0, 24.0, -54.0, -16.0, 28.0, 91.0, 59.0, 81.0, 20.0, 117.0, 56.0, 4.0, 75.0, -36.0, -62.0, -38.0, -2.0, 50.0, -95.0, 39.0, -73.0, -42.0, 21.0, 25.0, -91.0, 10.0, -4.0, -12.0, 28.0, 80.0, 49.0, 44.0, 36.0, 97.0, 44.0, -32.0, 40.0, 54.0, -74.0, 25.0, -59.0, 4.0, -72.0, 62.0, 37.0, -38.0, -24.0, -7.0, -47.0, 99.0, -18.0, -5.0, -127.0, 116.0, -25.0, -57.0, -41.0, -104.0, 38.0, 58.0, 27.0, 68.0, -37.0, -66.0, -35.0, -44.0, -102.0, 36.0, 88.0, -87.0, 32.0, 25.0, 47.0, 84.0, 27.0, 59.0, -89.0, 26.0, 58.0, 56.0, 14.0, -37.0, 11.0, -23.0, -11.0, -106.0, -30.0, -66.0, 77.0, -18.0, -31.0, 45.0, -58.0, -15.0, 41.0, -63.0, 23.0, -69.0, 56.0, 34.0, -98.0, 85.0, 74.0, -39.0, -115.0, -110.0, -16.0, 54.0, 74.0, 24.0, 89.0, -39.0, 36.0, -43.0, 22.0, 48.0, -85.0, -60.0, 79.0, -51.0, 30.0, 24.0, -8.0, 80.0, 19.0, -9.0, -111.0, 43.0, 46.0, 42.0, 78.0, -104.0, -5.0, -93.0, -40.0, 110.0, -57.0, -3.0, 63.0, -78.0, -4.0, -64.0, 37.0, 39.0, 63.0, -101.0, 56.0, -2.0, -58.0, 83.0, 87.0, -70.0, 127.0, -81.0, -68.0, 115.0, -67.0, 26.0, 76.0, 0.0, -73.0, -42.0, 32.0, -63.0, -75.0, -45.0, -28.0, 100.0, -72.0, 46.0, -15.0, -53.0, 15.0, 40.0, -107.0, 75.0, 94.0, -81.0, -13.0, 41.0, -44.0, };
static const unsigned char* v0_weight=weight0;
static const int32_t bias0[16] = {122, 122, 79, -485, 236, -137, -56, -64, -67, 126, -59, -148, 143, 595, -262, -77, };
static const float bias_fp0[16] = {122.0, 122.0, 79.0, -485.0, 236.0, -137.0, -56.0, -64.0, -67.0, 126.0, -59.0, -148.0, 143.0, 595.0, -262.0, -77.0, };
static const int32_t* v0_bias=bias0;
static const float scales0[16] = {0.0010395347, 0.0011212892, 0.0008686264, 0.0009670355, 0.00076066056, 0.00091027934, 0.0009121594, 0.0007575854, 0.0014015922, 0.0013038157, 0.0011207169, 0.0018136137, 0.0008024156, 0.0006244285, 0.0010155074, 0.0013837212, };
static const int32_t shift0[16] = {-9, -9, -10, -10, -10, -10, -10, -10, -9, -9, -9, -9, -10, -10, -9, -9, };
static const int32_t multiplier0[16] = {1142980480, 1232870528, 1910129664, 2126533504, 1672710272, 2001725440, 2005859712, 1665947904, 1541066880, 1433560576, 1232241280, 1994089344, 1764530560, 1373132800, 1116562176, 1521417600, };
static const unsigned char weight1[4608] = {0x10, 0x03, 0x0a, 0x34, 0xff, 0x06, 0x08, 0xf4, 0x0f, 0x14, 0x19, 0xe9, 0x19, 0x19, 0x13, 0xed, 0x2c, 0x07, 0x41, 0x1f, 0x10, 0x2e, 0x03, 0x27, 0x25, 0xe5, 0x03, 0x05, 0xe9, 0x45, 0xfc, 0xd6, 0xf7, 0xf6, 0x93, 0x25, 0x9e, 0x06, 0x1d, 0xf9, 0x19, 0xe2, 0xa5, 0x97, 0x83, 0xca, 0xea, 0xee, 0x29, 0xfd, 0x0f, 0xfe, 0x01, 0xf1, 0xfb, 0xec, 0xe1, 0xdf, 0x17, 0xf9, 0xf6, 0x18, 0xfe, 0xfd, 0xf8, 0xd9, 0x0d, 0xfa, 0x01, 0x12, 0x08, 0xf4, 0x26, 0x97, 0xfa, 0xfc, 0xd3, 0x2c, 0x10, 0xe5, 0x10, 0xcf, 0x87, 0x15, 0xb3, 0xe9, 0x0a, 0xec, 0xff, 0xe0, 0xbf, 0xb3, 0x9b, 0x81, 0xc3, 0xe1, 0xf7, 0x04, 0xf7, 0xd6, 0x07, 0xfe, 0x05, 0x05, 0xc6, 0xee, 0xfe, 0xf9, 0x0e, 0x0b, 0xed, 0x11, 0x1b, 0xe9, 0xfd, 0xe5, 0xe7, 0xdf, 0xdc, 0xfe, 0xdb, 0xbe, 0x08, 0x1a, 0x00, 0x3e, 0x13, 0x2b, 0x36, 0x16, 0x97, 0x10, 0xfa, 0x0b, 0xe6, 0xf3, 0xec, 0xe0, 0xe8, 0xd4, 0xcc, 0xce, 0xcb, 0xdc, 0x07, 0xde, 0xd9, 0x1c, 0x0b, 0xfb, 0xe6, 0x19, 0xdb, 0xfd, 0x0a, 0xdf, 0x0d, 0xed, 0xbb, 0x20, 0x22, 0xf5, 0xf4, 0xec, 0x34, 0xf5, 0xee, 0xe8, 0xad, 0x15, 0x21, 0x43, 0x2a, 0x01, 0xfd, 0x39, 0xda, 0x1f, 0xf3, 0xd8, 0x22, 0xb6, 0xe5, 0xd9, 0x1d, 0x27, 0x29, 0x13, 0x14, 0x24, 0x1c, 0x21, 0x1b, 0x17, 0xbd, 0x16, 0x17, 0xda, 0xf2, 0xc4, 0xeb, 0x0f, 0xe1, 0xee, 0x02, 0x03, 0xfd, 0x3e, 0xf5, 0x2c, 0xec, 0xdb, 0xf5, 0xe3, 0xf0, 0x83, 0xad, 0x36, 0x0e, 0xfe, 0x0f, 0xe0, 0xd5, 0x10, 0xfb, 0x2c, 0x1a, 0xc7, 0x2a, 0xb3, 0xd4, 0xd6, 0x25, 0x0f, 0xea, 0xf5, 0xdf, 0xf8, 0xf5, 0x0d, 0x00, 0xe5, 0xd6, 0xf8, 0xf5, 0x1f, 0xf6, 0xde, 0xfd, 0xfa, 0xef, 0xc5, 0xf1, 0xac, 0xc3, 0x24, 0xe4, 0x23, 0x01, 0xc1, 0x9c, 0xdd, 0x20, 0xb1, 0xab, 0x28, 0x4b, 0x03, 0x0b, 0xa8, 0xe3, 0xf5, 0x86, 0xf4, 0x1e, 0x09, 0x12, 0x81, 0xf1, 0x0e, 0x01, 0xe5, 0xf8, 0xc8, 0xc3, 0xf3, 0xf5, 0xcd, 0x2e, 0x22, 0xea, 0xe7, 0x32, 0x22, 0xc0, 0x0c, 0xd7, 0x0c, 0x16, 0x2f, 0x0f, 0x0c, 0x0b, 0x34, 0xff, 0x15, 0xd0, 0x01, 0x4a, 0xbd, 0xf1, 0xfa, 0xbc, 0xe0, 0xef, 0x21, 0xef, 0x33, 0xff, 0x1f, 0x02, 0x61, 0xca, 0xab, 0x03, 0x13, 0xe0, 0xf0, 0xb6, 0x35, 0x06, 0x3d, 0x0e, 0x8e, 0x87, 0x36, 0x2e, 0x36, 0xc6, 0xcc, 0x48, 0x1b, 0x07, 0x2b, 0xfc, 0x18, 0xbb, 0x0e, 0x0a, 0x03, 0x15, 0x43, 0x24, 0x20, 0xd7, 0x1a, 0xdc, 0xc5, 0xfc, 0x45, 0xe3, 0xef, 0x20, 0xdf, 0x12, 0x07, 0xe7, 0x29, 0x05, 0xb7, 0xb0, 0xfd, 0x8f, 0x2d, 0xfe, 0xc5, 0xef, 0xf2, 0xae, 0xb9, 0x08, 0x93, 0xb8, 0x28, 0x2f, 0xfb, 0xf0, 0xfd, 0x11, 0x16, 0xe0, 0x14, 0xf0, 0x0f, 0xff, 0xe8, 0x18, 0x17, 0xf7, 0xf1, 0xc5, 0x06, 0x24, 0xfd, 0xea, 0x04, 0xc5, 0xfa, 0x2e, 0xc5, 0xf6, 0x0c, 0xef, 0x00, 0xce, 0xb2, 0xf8, 0x01, 0x85, 0xed, 0x81, 0x12, 0xb3, 0xe9, 0xc5, 0xd0, 0xb7, 0xa6, 0xf6, 0xa6, 0xbd, 0xc6, 0xd2, 0xf3, 0x06, 0x04, 0xa2, 0xea, 0xfd, 0xf5, 0x1d, 0x0a, 0xd7, 0xd6, 0x2b, 0xcc, 0xde, 0xfd, 0x05, 0xd3, 0x07, 0x14, 0xb3, 0x07, 0xd3, 0x17, 0xdf, 0x05, 0x34, 0x17, 0x23, 0xec, 0xc2, 0xf8, 0xc3, 0xe6, 0xda, 0xf6, 0xe7, 0xb3, 0x16, 0x0a, 0x21, 0x3f, 0x11, 0x0c, 0xcf, 0x16, 0xe8, 0xba, 0x38, 0x29, 0xf6, 0x52, 0xc8, 0x07, 0x07, 0x22, 0x11, 0xe6, 0xe2, 0xfe, 0xff, 0x15, 0x0a, 0xbc, 0x01, 0x09, 0x0b, 0xc1, 0x9a, 0x0f, 0xd9, 0xe8, 0x1b, 0x0c, 0x28, 0xec, 0x2c, 0xd9, 0xec, 0x05, 0x8a, 0xea, 0x8a, 0x12, 0xe3, 0x81, 0xf7, 0x07, 0xf3, 0x27, 0xd7, 0xdc, 0xf6, 0xac, 0xf2, 0xb0, 0x02, 0x14, 0xd9, 0x2e, 0xdd, 0xef, 0x1a, 0xfd, 0xde, 0x11, 0xf8, 0xfa, 0xc9, 0x14, 0x10, 0xcd, 0xe8, 0x16, 0xf3, 0x1b, 0xe6, 0x0e, 0xe3, 0xa0, 0x0e, 0xe8, 0xe4, 0x00, 0xdb, 0x0e, 0x1f, 0xb9, 0xa3, 0xd4, 0xd2, 0xd6, 0xc3, 0x88, 0xf3, 0xe9, 0xec, 0x0a, 0xe1, 0xa9, 0xec, 0xf5, 0xd5, 0xed, 0xbe, 0xb7, 0x81, 0x12, 0xbc, 0x87, 0xa5, 0x03, 0xdf, 0x98, 0x11, 0xb8, 0xde, 0x1c, 0xcf, 0xf9, 0xd7, 0xac, 0xca, 0xba, 0x05, 0xd9, 0xc7, 0xc1, 0xcc, 0xcb, 0xf4, 0xad, 0x49, 0xfc, 0x0c, 0x36, 0xe8, 0x0d, 0x14, 0xd4, 0xf7, 0xcb, 0xca, 0xf3, 0xf1, 0x0e, 0x0c, 0x01, 0x29, 0xf5, 0xcc, 0xc8, 0xc5, 0xfe, 0xca, 0xcc, 0x14, 0xef, 0xf1, 0xce, 0xd6, 0xa2, 0xf4, 0xb8, 0xc7, 0xa7, 0xcd, 0xb0, 0x19, 0xc7, 0x1b, 0xbe, 0xe2, 0x11, 0xe8, 0xc1, 0x03, 0xb6, 0x5f, 0x17, 0x40, 0xee, 0xc1, 0x1f, 0xfc, 0x21, 0xd8, 0xf9, 0xdf, 0xfd, 0x10, 0xef, 0xf2, 0xef, 0xe0, 0x02, 0x07, 0x07, 0x13, 0x04, 0x90, 0xd7, 0x0e, 0x0e, 0xec, 0x12, 0x32, 0xfb, 0x08, 0xa8, 0xc7, 0xa6, 0xf1, 0x0c, 0xa8, 0xd9, 0xf7, 0x91, 0xe7, 0xcc, 0x09, 0xe2, 0xfe, 0xe5, 0xd0, 0x10, 0x56, 0xe1, 0x3f, 0xac, 0xfa, 0x1b, 0x20, 0x05, 0x46, 0x07, 0x04, 0x0d, 0x2e, 0xfe, 0x3c, 0x24, 0x1c, 0xdd, 0xf5, 0x3b, 0x31, 0xfd, 0x07, 0xdf, 0x07, 0xa6, 0x22, 0xe4, 0x83, 0xcf, 0x98, 0xcf, 0xf3, 0x0a, 0xe4, 0x0f, 0xa3, 0x39, 0xbc, 0x0a, 0xd4, 0xa4, 0xcc, 0xc1, 0xda, 0xcf, 0xb5, 0xfb, 0xdb, 0xfd, 0xfb, 0xe5, 0x8f, 0x18, 0x0e, 0xa3, 0x94, 0x98, 0xa6, 0xd8, 0x9d, 0xde, 0x8d, 0x18, 0x81, 0x0d, 0x0c, 0xf4, 0x8b, 0x35, 0x19, 0x34, 0xca, 0xf0, 0x16, 0xda, 0xc5, 0xff, 0xe6, 0x1a, 0x18, 0x0c, 0x05, 0x2f, 0xed, 0x2f, 0x3c, 0x09, 0x1b, 0x9a, 0x12, 0xeb, 0xda, 0xf6, 0xb6, 0x20, 0x9f, 0x16, 0x31, 0xe1, 0xe8, 0x2a, 0x2c, 0x0d, 0xe6, 0xc2, 0x18, 0x2e, 0xb3, 0x1d, 0xa0, 0x2d, 0xcc, 0x0c, 0x02, 0x28, 0xc6, 0x55, 0x35, 0x32, 0x18, 0xe6, 0x13, 0xea, 0xdd, 0x03, 0x0a, 0xec, 0xf4, 0xee, 0x04, 0xf2, 0x05, 0x09, 0x3b, 0x0a, 0x02, 0xf7, 0x2c, 0x29, 0xf1, 0x0f, 0x0a, 0x2c, 0x04, 0x16, 0x61, 0x0f, 0xdb, 0x21, 0x0b, 0x43, 0x24, 0x04, 0x0c, 0x1b, 0x1c, 0x06, 0x02, 0x4a, 0x33, 0x05, 0xfe, 0x10, 0x0a, 0x35, 0x33, 0xe8, 0x25, 0x07, 0xf3, 0x47, 0x2d, 0x08, 0x22, 0xe7, 0x3c, 0xca, 0xea, 0x54, 0x4f, 0x32, 0x3d, 0x06, 0x29, 0xfb, 0x6d, 0x1b, 0x0c, 0xf1, 0x14, 0x2e, 0xdd, 0x33, 0x7f, 0x21, 0x4b, 0x40, 0x23, 0x42, 0x0b, 0x2c, 0x5e, 0x0f, 0xec, 0xeb, 0x03, 0x6c, 0xd7, 0x2c, 0x56, 0xf6, 0x3b, 0x35, 0x36, 0xe0, 0x1a, 0x07, 0x34, 0x16, 0xe7, 0x04, 0x05, 0xf9, 0xa5, 0x17, 0xcf, 0x1a, 0xee, 0x34, 0x7b, 0x26, 0x1b, 0xd0, 0x69, 0x3e, 0xca, 0x39, 0xf9, 0x40, 0xef, 0xf7, 0x61, 0x37, 0x3d, 0x6a, 0x2d, 0x56, 0xf7, 0x37, 0xfb, 0x02, 0xe6, 0x01, 0x3b, 0x3a, 0xe7, 0x0f, 0x26, 0xe0, 0xf8, 0x46, 0x21, 0xf7, 0xc8, 0x8e, 0x31, 0xe1, 0xce, 0xe0, 0x04, 0x0a, 0xc3, 0x23, 0x02, 0xf8, 0xc8, 0x43, 0x4b, 0x2b, 0x37, 0xbb, 0x0f, 0xe8, 0xd8, 0xfa, 0xf3, 0x29, 0xbd, 0x33, 0x37, 0x08, 0xdf, 0x4d, 0x29, 0x16, 0xef, 0x41, 0xf5, 0x01, 0xcd, 0xf6, 0x15, 0x2d, 0x0d, 0x4d, 0x0a, 0x20, 0x22, 0xff, 0x04, 0xf0, 0xda, 0xf0, 0xdc, 0x12, 0xec, 0xce, 0x03, 0x14, 0x02, 0x1b, 0x04, 0x05, 0xeb, 0x19, 0xdd, 0x1b, 0xb4, 0xf7, 0xfd, 0xfa, 0xfd, 0xbc, 0xad, 0xdb, 0xc0, 0x04, 0xe5, 0xd8, 0xea, 0xfa, 0x0b, 0xe2, 0xc8, 0xc3, 0x9f, 0xeb, 0x81, 0xb2, 0xfa, 0x15, 0x90, 0x16, 0xf6, 0xde, 0xdf, 0xd7, 0x34, 0xf4, 0xed, 0xd2, 0x0b, 0xde, 0xfd, 0x15, 0x02, 0x13, 0xf4, 0x46, 0x00, 0x22, 0x0c, 0x2e, 0x0c, 0x2d, 0xae, 0xdf, 0x06, 0x0d, 0x99, 0x09, 0xc9, 0x1c, 0xf7, 0x26, 0xdd, 0x08, 0xc5, 0x1b, 0x0e, 0xfb, 0xb8, 0x0e, 0x05, 0xc0, 0xc8, 0x0d, 0xe5, 0xe7, 0xe5, 0xf3, 0xf7, 0xd2, 0xff, 0x16, 0x2e, 0x22, 0xfe, 0xfd, 0x2a, 0x09, 0xf3, 0x2a, 0x0f, 0x1e, 0x0c, 0x26, 0xe0, 0x0f, 0x1d, 0x17, 0x20, 0x05, 0x13, 0xfb, 0x01, 0x09, 0xbf, 0xf2, 0x0d, 0x25, 0x0d, 0x35, 0x39, 0x01, 0xdf, 0x2a, 0x06, 0xfa, 0xd8, 0x02, 0x10, 0x0e, 0xce, 0x2e, 0xfa, 0xee, 0x16, 0xf0, 0x29, 0x2d, 0xf1, 0x0b, 0xec, 0xaa, 0xee, 0xd0, 0xe2, 0xbf, 0x8e, 0xf3, 0x97, 0x1a, 0xb7, 0x22, 0xec, 0xfc, 0xfb, 0x34, 0x09, 0xf7, 0x9d, 0xdb, 0xa7, 0xdb, 0xd1, 0xf6, 0xf2, 0xfd, 0x81, 0xf9, 0xbe, 0xd4, 0xe0, 0xf2, 0x11, 0xfa, 0xbd, 0xe0, 0x10, 0xc5, 0xcc, 0xd5, 0xeb, 0x00, 0xa2, 0x4f, 0xd7, 0xca, 0xce, 0x27, 0xfe, 0x12, 0xf5, 0xf3, 0xea, 0x07, 0x89, 0xd9, 0xc9, 0x44, 0xa7, 0xf1, 0xc5, 0xe8, 0xbd, 0x2e, 0xfc, 0x47, 0xf0, 0xdb, 0xea, 0x29, 0x9b, 0xa8, 0x11, 0x2c, 0xc2, 0x12, 0xd3, 0xd4, 0xf0, 0x2b, 0x18, 0x10, 0xb3, 0xd3, 0x0a, 0xf0, 0xbf, 0xf1, 0x1e, 0x0a, 0xab, 0x40, 0x2c, 0xdb, 0xec, 0x1b, 0x43, 0x01, 0x04, 0xcc, 0xf2, 0x27, 0xac, 0xea, 0xf4, 0xfe, 0x05, 0x28, 0xe6, 0xea, 0x0a, 0x34, 0x26, 0x37, 0xf7, 0x1d, 0xf5, 0xf4, 0xe9, 0xd7, 0x01, 0x24, 0x01, 0x0b, 0xea, 0x1c, 0xca, 0x0c, 0x1c, 0x13, 0xf5, 0x0f, 0x1e, 0xde, 0x1e, 0x13, 0xed, 0x0b, 0x05, 0xe2, 0x0e, 0x2c, 0x19, 0x2b, 0xf8, 0x16, 0x04, 0x28, 0x17, 0x16, 0x21, 0x13, 0x0c, 0x3c, 0x1d, 0x13, 0xed, 0x12, 0xf6, 0x1d, 0x09, 0xe8, 0xe2, 0x03, 0xd8, 0x45, 0xe0, 0xf2, 0xe3, 0x03, 0x42, 0x49, 0x1d, 0xfb, 0x3e, 0x31, 0xf3, 0xe8, 0x19, 0x31, 0x30, 0x20, 0x5b, 0x1d, 0x41, 0x18, 0x37, 0x1d, 0x08, 0x25, 0x3a, 0x17, 0xfe, 0x2b, 0xf3, 0x26, 0xca, 0x01, 0x21, 0x2c, 0x0b, 0x2e, 0xf5, 0x43, 0xe9, 0xcd, 0x29, 0x20, 0x15, 0x17, 0xfe, 0x42, 0xeb, 0x26, 0x22, 0xfc, 0x2a, 0x02, 0x5f, 0x47, 0xe4, 0xf4, 0x44, 0xdf, 0x2a, 0xd8, 0x37, 0x7f, 0x04, 0x0b, 0x10, 0x40, 0x4f, 0x15, 0x3b, 0xf7, 0x2f, 0x23, 0x39, 0x04, 0x25, 0x1c, 0x0f, 0x45, 0x54, 0x2a, 0x0b, 0x29, 0x30, 0x4f, 0x29, 0x30, 0x0f, 0xf4, 0x17, 0xf8, 0x2b, 0x07, 0x39, 0x23, 0xf6, 0x42, 0x57, 0x30, 0x16, 0x09, 0x5d, 0x60, 0x0e, 0x11, 0x25, 0x25, 0x38, 0xeb, 0x43, 0x4d, 0x65, 0x0c, 0x13, 0x2c, 0x32, 0x1a, 0x4c, 0x44, 0x3d, 0x25, 0x48, 0x48, 0xf0, 0xf1, 0x01, 0x0d, 0xd2, 0xdc, 0xd8, 0xcd, 0xda, 0xf0, 0xe9, 0x20, 0xce, 0xeb, 0xeb, 0xef, 0xfb, 0x0d, 0x00, 0xe9, 0xb4, 0x08, 0x99, 0xda, 0xe5, 0x0d, 0xed, 0xd5, 0x0a, 0x22, 0x25, 0x21, 0x26, 0xf8, 0xd5, 0xe4, 0xed, 0xe9, 0xd1, 0xd4, 0x27, 0xc5, 0x9d, 0x98, 0x81, 0xc2, 0xce, 0xfc, 0xbf, 0xd5, 0xc7, 0x0b, 0xff, 0x08, 0xd1, 0xd2, 0xed, 0xd3, 0x05, 0x38, 0x13, 0x10, 0xdf, 0x20, 0xfa, 0x3a, 0xdb, 0xfa, 0xb4, 0x3a, 0xcc, 0xf8, 0xc1, 0x24, 0x21, 0xf9, 0xdf, 0x0f, 0x2b, 0x29, 0xe0, 0xad, 0xb4, 0xe5, 0x08, 0xe2, 0xd7, 0xb9, 0x2c, 0xff, 0x12, 0xe2, 0x9b, 0xdb, 0xe6, 0xf5, 0xf5, 0x07, 0x05, 0x0b, 0xf8, 0xe4, 0xda, 0xf7, 0x22, 0xe6, 0x0e, 0x06, 0xfe, 0xcf, 0x27, 0xd9, 0x1b, 0x13, 0x18, 0x1d, 0x0a, 0x34, 0xde, 0x0a, 0x0d, 0x08, 0x19, 0xfe, 0x29, 0xdb, 0x46, 0x2a, 0xe6, 0x02, 0x9e, 0x0c, 0xf0, 0xed, 0xe4, 0xd8, 0x31, 0xfa, 0x15, 0xf5, 0xbb, 0xc6, 0x03, 0x05, 0xfe, 0x04, 0x15, 0xfb, 0x0d, 0xff, 0xec, 0x04, 0xf3, 0x18, 0x11, 0x25, 0x4a, 0x2a, 0x38, 0x08, 0x0c, 0x46, 0x2f, 0x17, 0x08, 0x41, 0x01, 0x0f, 0x03, 0x3d, 0x26, 0x0e, 0x0f, 0xfe, 0xea, 0x03, 0xff, 0x3c, 0x04, 0xfe, 0x09, 0x38, 0xee, 0x0c, 0x1d, 0x15, 0x1b, 0xf4, 0x02, 0x0b, 0x65, 0x16, 0x5a, 0xfe, 0x2b, 0x0b, 0x2b, 0x4d, 0xe8, 0x0f, 0x14, 0x32, 0x3c, 0x15, 0xfb, 0x46, 0x37, 0x10, 0x7f, 0x1f, 0x62, 0x1a, 0x0a, 0x4b, 0x25, 0x00, 0x53, 0x39, 0xf3, 0x40, 0x55, 0x23, 0x2d, 0xd0, 0xf3, 0x27, 0xe8, 0x43, 0x1e, 0x1d, 0x0a, 0x18, 0x4d, 0x10, 0xf6, 0x4c, 0x1a, 0xcf, 0x41, 0x04, 0x51, 0x1e, 0x1b, 0x46, 0x4b, 0x0a, 0x1d, 0x25, 0x47, 0x3c, 0x0d, 0x39, 0xfc, 0x29, 0x27, 0x14, 0x52, 0x27, 0x15, 0x0a, 0x53, 0x2f, 0x12, 0x58, 0x44, 0x3d, 0x30, 0x6b, 0x4a, 0x4f, 0x78, 0x26, 0x0c, 0x16, 0x2b, 0x48, 0x2e, 0x3f, 0x08, 0x59, 0x25, 0x4e, 0x2d, 0x5e, 0x1f, 0xf4, 0x45, 0xda, 0x2a, 0x00, 0x0f, 0xeb, 0xff, 0xe8, 0xf8, 0xf6, 0xed, 0x14, 0xbf, 0x2c, 0x0e, 0x1c, 0x02, 0x3e, 0x03, 0x23, 0x04, 0xbd, 0x2e, 0xb7, 0xe1, 0x1f, 0xd7, 0x28, 0xfb, 0x17, 0xf7, 0x05, 0xc6, 0x2d, 0x17, 0x0b, 0x22, 0x01, 0x1e, 0xf9, 0xfd, 0x0f, 0x01, 0x0c, 0xf2, 0x25, 0x35, 0xfc, 0xe6, 0x1e, 0xf2, 0xec, 0xe4, 0xcc, 0xd6, 0x06, 0xe7, 0xa6, 0x1d, 0xee, 0xd9, 0xff, 0xe9, 0xeb, 0xef, 0x09, 0xd5, 0x2f, 0x00, 0xbb, 0xf1, 0x81, 0xd1, 0x0a, 0xf7, 0x0a, 0xcf, 0xf8, 0xe4, 0x03, 0xb2, 0x01, 0x03, 0xf3, 0x08, 0xe8, 0xf2, 0xfd, 0xf1, 0xd9, 0x25, 0x06, 0x24, 0x2a, 0x11, 0x0f, 0xf7, 0x24, 0xe4, 0xd2, 0xcc, 0xd9, 0xd2, 0xfe, 0xf5, 0xbf, 0xd4, 0xe6, 0xb6, 0xfd, 0x9e, 0xee, 0xe3, 0x02, 0xdc, 0xd2, 0xea, 0xd1, 0xc2, 0x9a, 0x09, 0xf2, 0xd5, 0xef, 0x0c, 0xc9, 0xf8, 0xee, 0xd9, 0xfd, 0x08, 0x12, 0x06, 0xd4, 0xd9, 0xd0, 0xf8, 0xed, 0xeb, 0xcf, 0xf6, 0x0c, 0xfd, 0xd3, 0xf6, 0x1b, 0x20, 0xff, 0x31, 0xee, 0xf8, 0xf8, 0xb1, 0x05, 0xd5, 0xf2, 0x07, 0xbc, 0x0f, 0x51, 0xe8, 0x2e, 0x5b, 0x50, 0x13, 0x3a, 0x13, 0x27, 0x52, 0x40, 0x25, 0x10, 0x02, 0xf7, 0x54, 0x20, 0x3f, 0x16, 0x20, 0xee, 0xe1, 0x2d, 0x06, 0x2b, 0xd1, 0xf4, 0xe7, 0x1b, 0x12, 0x1e, 0x37, 0xe5, 0xf1, 0x3e, 0xce, 0xd6, 0xdf, 0xe4, 0xeb, 0x0f, 0xf2, 0xd0, 0xb7, 0xf6, 0xe0, 0x05, 0xe1, 0x4f, 0xd0, 0xf0, 0x4b, 0x0f, 0x37, 0x22, 0x68, 0x3a, 0x20, 0x2a, 0xf9, 0x14, 0x0a, 0x42, 0x25, 0x47, 0x13, 0x1c, 0x11, 0x19, 0xc6, 0x10, 0x18, 0x35, 0x25, 0x0d, 0xfb, 0x0d, 0x04, 0x23, 0xf8, 0xc7, 0x27, 0x2b, 0xae, 0xad, 0xdf, 0xfa, 0xbf, 0xff, 0x81, 0x9c, 0xf6, 0xc6, 0xf6, 0xcc, 0xea, 0xd9, 0x93, 0xd2, 0x12, 0x09, 0xfe, 0xf3, 0x2b, 0x46, 0xc4, 0x14, 0x05, 0x19, 0x05, 0x38, 0xef, 0x1f, 0xe7, 0x38, 0x30, 0x0e, 0xd5, 0x0f, 0x05, 0x3e, 0x29, 0x2c, 0x36, 0x26, 0x0c, 0xfb, 0x1c, 0x04, 0x24, 0x2f, 0xf9, 0xc8, 0xb4, 0x00, 0xfd, 0xa9, 0xed, 0xce, 0xf0, 0x17, 0x97, 0xff, 0x2c, 0xec, 0xdd, 0xf8, 0xec, 0xe4, 0xf7, 0xe6, 0xc4, 0xf0, 0xf4, 0x05, 0xfb, 0x21, 0xf2, 0x4c, 0x22, 0xcb, 0xed, 0xf2, 0xec, 0x03, 0xf8, 0xc0, 0x1d, 0xb0, 0x01, 0xc1, 0xe6, 0xf6, 0xb1, 0x25, 0xb0, 0xd1, 0xc6, 0xf4, 0xfe, 0x0d, 0xbf, 0xab, 0x20, 0xb6, 0xb9, 0xd9, 0xd1, 0x08, 0x81, 0x18, 0x11, 0xe7, 0xb4, 0x02, 0x03, 0x40, 0xd2, 0x0d, 0xe6, 0x11, 0xab, 0xf1, 0xa3, 0xff, 0xcf, 0x23, 0xe6, 0x33, 0xad, 0x2d, 0x10, 0x38, 0xcd, 0xd3, 0xfd, 0xf7, 0xad, 0xb3, 0xd7, 0x3c, 0xfa, 0xf5, 0x1a, 0x12, 0xc3, 0xed, 0x20, 0x05, 0xe0, 0xe6, 0x09, 0x0e, 0x89, 0xf3, 0xd4, 0x31, 0xee, 0xee, 0x12, 0x11, 0xfa, 0x07, 0x3f, 0x35, 0xce, 0xcb, 0x2d, 0x29, 0xd6, 0x00, 0xe7, 0xfe, 0xdc, 0x3b, 0x01, 0xf7, 0xbf, 0x44, 0x1d, 0x1d, 0x0a, 0xef, 0x33, 0x11, 0xca, 0xf8, 0xdb, 0x01, 0x1f, 0x14, 0x21, 0x0b, 0xf3, 0xf7, 0xd9, 0xf6, 0x40, 0xfe, 0x10, 0x28, 0xe5, 0x06, 0x09, 0xf0, 0xff, 0xdc, 0x0a, 0xff, 0xee, 0x07, 0x3e, 0xee, 0x34, 0x5c, 0x1c, 0x3d, 0x57, 0x2a, 0x4e, 0x33, 0x3b, 0x0c, 0x65, 0x08, 0x3f, 0x45, 0xf7, 0x13, 0xec, 0x72, 0xdb, 0x15, 0x31, 0x21, 0x32, 0x4a, 0x2f, 0x36, 0xdd, 0xe9, 0x3e, 0xff, 0xe4, 0xed, 0x20, 0x28, 0xff, 0x4d, 0xe9, 0x02, 0x22, 0xae, 0x27, 0xef, 0xb8, 0xc7, 0xfb, 0xf5, 0x09, 0xd0, 0x5d, 0x5c, 0x22, 0x50, 0x5d, 0x4d, 0x3f, 0xe5, 0x3a, 0x09, 0xca, 0xf6, 0x51, 0x0f, 0x2a, 0x04, 0xa2, 0x50, 0xde, 0x22, 0x05, 0x20, 0x44, 0xda, 0xeb, 0x00, 0xd4, 0xf0, 0x7f, 0x18, 0xef, 0xfc, 0xf4, 0xbf, 0x01, 0x20, 0xeb, 0xc3, 0x03, 0xd3, 0x02, 0xfe, 0xe8, 0xa7, 0xf2, 0x09, 0x39, 0xc4, 0x49, 0x1c, 0xff, 0x4f, 0x24, 0x41, 0x1f, 0x07, 0xf2, 0x2e, 0x0a, 0xe7, 0x34, 0x37, 0x26, 0x14, 0xea, 0x33, 0x1d, 0x04, 0xff, 0x26, 0x09, 0xe9, 0x18, 0x09, 0xd3, 0x0f, 0x40, 0x24, 0x49, 0x35, 0xfb, 0x01, 0x4d, 0x60, 0xe4, 0x2e, 0x1a, 0x06, 0x07, 0xfc, 0x15, 0xf5, 0xf3, 0x1f, 0x18, 0xfe, 0xfe, 0x28, 0x45, 0x1c, 0x2e, 0x45, 0xf7, 0x01, 0x3b, 0xd6, 0x25, 0x0f, 0x21, 0xf6, 0x4e, 0x03, 0xee, 0x26, 0xdf, 0xe7, 0x32, 0x03, 0xe7, 0xee, 0x18, 0x25, 0xd9, 0x17, 0x1e, 0xf5, 0x56, 0x48, 0x16, 0xcf, 0x7f, 0x27, 0x09, 0x0f, 0xdd, 0x0f, 0x0e, 0x18, 0x19, 0x5f, 0x09, 0x67, 0x13, 0x13, 0xfc, 0x2e, 0x4a, 0xec, 0x25, 0x4f, 0xdb, 0x25, 0x09, 0x3e, 0x40, 0x22, 0xfb, 0x05, 0x14, 0xe0, 0x09, 0x2b, 0x0b, 0xc9, 0xe6, 0x13, 0xfc, 0xe7, 0x0e, 0x27, 0xcd, 0x0b, 0xdf, 0x14, 0x39, 0x40, 0x0a, 0x09, 0x64, 0x02, 0x07, 0x3c, 0x08, 0x5c, 0xff, 0x02, 0x31, 0x31, 0x0a, 0x59, 0x38, 0x50, 0xef, 0xe0, 0x17, 0xf0, 0xe3, 0x44, 0x01, 0x2c, 0x0b, 0xed, 0x2b, 0xfa, 0xe3, 0x68, 0x2b, 0x03, 0x0e, 0x05, 0x06, 0xd5, 0xe9, 0x0b, 0x12, 0x38, 0x4f, 0x1f, 0x32, 0x16, 0x31, 0x3b, 0x37, 0xe0, 0xd4, 0x19, 0xf6, 0x20, 0x8d, 0xdf, 0xe4, 0xd7, 0xb4, 0x0a, 0x0a, 0xca, 0xe5, 0x1f, 0xd8, 0xf9, 0xeb, 0x06, 0x99, 0xee, 0x23, 0x3c, 0xf8, 0xfb, 0x32, 0x1b, 0x05, 0x4f, 0x08, 0xef, 0x08, 0xf5, 0xd0, 0xb6, 0xb1, 0x17, 0x9f, 0x3b, 0xc6, 0x9c, 0x82, 0x08, 0xb7, 0x89, 0x82, 0xcb, 0x11, 0xe8, 0xe1, 0x0d, 0xbb, 0x25, 0x25, 0xb1, 0x4b, 0xbe, 0xcb, 0xcf, 0xdb, 0xc2, 0xc7, 0xfb, 0x0f, 0x1b, 0x26, 0xf4, 0xed, 0xe3, 0xe6, 0x24, 0x09, 0xd6, 0x6e, 0xef, 0x1d, 0x4c, 0x22, 0x30, 0x45, 0x0a, 0x99, 0xb7, 0x83, 0xec, 0x01, 0xbc, 0x18, 0xf1, 0xeb, 0x82, 0x8a, 0xa3, 0xd4, 0xdb, 0xfc, 0x86, 0xa8, 0xe5, 0x0d, 0xe9, 0xfe, 0xb7, 0x20, 0xe0, 0xb2, 0x27, 0x19, 0x9b, 0x38, 0x38, 0xd6, 0xa8, 0xea, 0x32, 0xc0, 0x40, 0xfd, 0x1c, 0x14, 0xb4, 0x3e, 0x29, 0xe2, 0x5b, 0xfa, 0xe0, 0x28, 0xf0, 0x00, 0xfa, 0x13, 0x0c, 0x18, 0xd6, 0x02, 0xae, 0x0e, 0xf4, 0x81, 0xc8, 0x30, 0x2c, 0x46, 0xf3, 0x10, 0x0d, 0xdf, 0x16, 0x02, 0x2f, 0xf4, 0x32, 0x28, 0x22, 0xfc, 0x2a, 0x0f, 0x2f, 0x6a, 0x03, 0x45, 0x22, 0x1d, 0x3f, 0x01, 0xe4, 0x0b, 0x2a, 0x42, 0x1e, 0x04, 0x26, 0x38, 0x2b, 0x62, 0x27, 0x51, 0x45, 0xfa, 0x14, 0xf3, 0x40, 0x3c, 0x3b, 0x2e, 0x6b, 0x58, 0x45, 0x78, 0x03, 0xd7, 0x19, 0x24, 0x53, 0xe0, 0x27, 0x0f, 0xfe, 0x24, 0x2a, 0xf3, 0xde, 0xe8, 0x1d, 0x34, 0xdf, 0x4d, 0x24, 0xf3, 0xf1, 0x24, 0x58, 0x2c, 0x25, 0x69, 0x37, 0xf1, 0x1a, 0x4d, 0x06, 0x72, 0x43, 0x3b, 0xeb, 0x5c, 0x7e, 0x7f, 0x0d, 0x0e, 0x33, 0x6e, 0x2f, 0x39, 0x5e, 0x21, 0xee, 0x28, 0x2a, 0xed, 0xfa, 0xc7, 0x0f, 0xbb, 0xef, 0x23, 0xec, 0x12, 0x2d, 0xf7, 0x27, 0xec, 0xe3, 0xfc, 0xef, 0x06, 0xda, 0x3f, 0x2a, 0xf5, 0x1f, 0x06, 0x36, 0xf1, 0x2c, 0xeb, 0x1c, 0x01, 0x33, 0x06, 0x05, 0x46, 0x1d, 0x34, 0x44, 0x0a, 0xfd, 0xe0, 0x13, 0x63, 0x4d, 0x29, 0x21, 0x3f, 0x22, 0x09, 0x1e, 0xeb, 0x1a, 0xe9, 0xd0, 0x43, 0xe1, 0xcd, 0xdc, 0xf3, 0x17, 0x0c, 0xf7, 0x2d, 0x23, 0xea, 0x0c, 0xdc, 0x03, 0xc2, 0xf7, 0xf5, 0xbf, 0xe4, 0xf3, 0xde, 0x4a, 0xa9, 0x06, 0x44, 0x97, 0x1b, 0xff, 0x0a, 0xc3, 0xa9, 0xe1, 0xde, 0xe5, 0xc8, 0xbb, 0xa9, 0xfa, 0xf9, 0x36, 0x01, 0x13, 0x0f, 0x07, 0xf3, 0x1c, 0x4f, 0x81, 0xf1, 0xe8, 0xc9, 0xf1, 0xe6, 0x1a, 0x2d, 0x48, 0xcc, 0xfc, 0xdc, 0xe9, 0xf0, 0x27, 0xef, 0x06, 0xea, 0xa8, 0x07, 0xd6, 0xac, 0x22, 0xfb, 0x8e, 0x42, 0xb1, 0xfe, 0x0a, 0x34, 0x25, 0xb1, 0x1b, 0xf1, 0xbf, 0xa6, 0xe2, 0xec, 0x16, 0xf5, 0x2a, 0xd7, 0xc6, 0xb6, 0x1b, 0xf9, 0x3a, 0x36, 0xa2, 0x26, 0xf3, 0xc3, 0x1a, 0xe1, 0x23, 0x0b, 0xd9, 0x15, 0x59, 0xe7, 0x1c, 0x3d, 0x2d, 0xe3, 0xeb, 0xc3, 0xfd, 0xc8, 0xc4, 0xbc, 0x0f, 0xf9, 0xe5, 0x2c, 0xd7, 0xb3, 0x16, 0xc3, 0xe6, 0xb7, 0xb6, 0x14, 0x90, 0xab, 0xc0, 0xde, 0x14, 0xba, 0x37, 0x0f, 0xec, 0xae, 0x28, 0x10, 0xcf, 0xce, 0xf6, 0xbc, 0xff, 0x15, 0x27, 0x18, 0x03, 0x14, 0xd7, 0xbe, 0x03, 0x04, 0xcc, 0xe9, 0xfc, 0x22, 0x08, 0xfd, 0x1f, 0x2b, 0x15, 0x16, 0xc4, 0x11, 0xdf, 0x02, 0xff, 0xf7, 0xca, 0x01, 0xfb, 0x19, 0xef, 0xfe, 0x08, 0x0a, 0x27, 0xf6, 0xe2, 0x0b, 0xd7, 0xe8, 0x15, 0x0b, 0xfa, 0xe6, 0xc6, 0x90, 0x11, 0xe4, 0xd8, 0x0e, 0x03, 0x06, 0xe4, 0xe8, 0xa5, 0xb3, 0xd8, 0xa2, 0xbd, 0xf9, 0xd4, 0x1b, 0xe8, 0x08, 0x0d, 0x38, 0x01, 0xfc, 0xbd, 0x11, 0xd6, 0x13, 0x16, 0xff, 0xe0, 0xfb, 0x14, 0x14, 0xd7, 0x13, 0x0b, 0x14, 0x22, 0xf1, 0xf2, 0x01, 0xfb, 0xfb, 0x0c, 0x0b, 0x0d, 0xb5, 0x02, 0xe2, 0xcc, 0xab, 0xba, 0xf7, 0x1a, 0xc1, 0xf0, 0xd2, 0x8d, 0x81, 0xe4, 0xb2, 0xd7, 0xe9, 0xe7, 0x2f, 0xc6, 0x2a, 0xf1, 0x11, 0xfd, 0xe9, 0xc4, 0x12, 0xb2, 0x17, 0x33, 0xe7, 0xf4, 0xdd, 0xf7, 0x17, 0xf0, 0xf6, 0x0f, 0x17, 0x11, 0xd7, 0x04, 0x00, 0xed, 0x03, 0xf0, 0xf4, 0xdf, 0x00, 0xd1, 0x31, 0x09, 0xe9, 0x35, 0x0f, 0x03, 0x1e, 0xe7, 0x29, 0x04, 0xd2, 0xf2, 0xed, 0xfc, 0x01, 0x21, 0xe3, 0x49, 0x9a, 0x31, 0x42, 0xc3, 0x2a, 0xce, 0x0a, 0x01, 0xee, 0xb9, 0x45, 0xf2, 0x06, 0x0b, 0xc6, 0x1c, 0xc6, 0xf1, 0xd3, 0xa7, 0x2f, 0xd7, 0x22, 0x2f, 0xed, 0xa8, 0x4d, 0x56, 0x07, 0xa7, 0xe1, 0x0f, 0xdd, 0x0b, 0xf5, 0x0a, 0x12, 0xf0, 0xaa, 0x1d, 0xdf, 0xac, 0x15, 0x07, 0xfc, 0xcc, 0xb1, 0x42, 0x88, 0x1a, 0x28, 0xec, 0x23, 0x01, 0xe6, 0x15, 0xe7, 0x81, 0x01, 0xce, 0x0e, 0xf2, 0xce, 0x3b, 0xed, 0xb7, 0x0c, 0xae, 0x38, 0xc1, 0x0b, 0x36, 0x02, 0xde, 0x43, 0x57, 0x18, 0xdf, 0xb0, 0xda, 0xeb, 0xe6, 0xcb, 0xdb, 0xb5, 0x04, 0xa8, 0x16, 0xe0, 0xdb, 0xc2, 0xfa, 0x16, 0x20, 0x9b, 0x05, 0xd8, 0xe4, 0x14, 0xdc, 0x00, 0x0e, 0xbf, 0xfe, 0xfd, 0xbc, 0xd4, 0x36, 0x22, 0x1f, 0xec, 0x26, 0x19, 0xb7, 0xf2, 0xe0, 0x0d, 0x0d, 0xe2, 0x3b, 0x1a, 0xe4, 0xfa, 0x2c, 0x02, 0x24, 0x27, 0x50, 0x05, 0x35, 0x38, 0x3a, 0x33, 0x7f, 0x3b, 0x5a, 0x5c, 0x27, 0x65, 0x54, 0x48, 0x00, 0xd9, 0x1d, 0x28, 0x1c, 0x33, 0x50, 0xfb, 0xdc, 0xec, 0x17, 0x04, 0x1f, 0x1c, 0x37, 0x10, 0x10, 0xe9, 0x13, 0xed, 0x46, 0x13, 0xf9, 0xe1, 0x40, 0x26, 0x02, 0x3c, 0x08, 0xe3, 0x50, 0x35, 0xfd, 0x37, 0x5f, 0xeb, 0x1d, 0x07, 0x13, 0x28, 0x44, 0x6a, 0x46, 0x43, 0x0b, 0x6d, 0x2d, 0x24, 0xed, 0xdd, 0x41, 0x15, 0x38, 0x1d, 0x17, 0xec, 0x21, 0x23, 0x21, 0x2b, 0x1b, 0x2e, 0x3f, 0x4b, 0x3e, 0xf9, 0xfa, 0x21, 0xf2, 0x1f, 0x0d, 0x12, 0x29, 0x25, 0x27, 0x16, 0x22, 0xf1, 0x4c, 0x33, 0x17, 0x79, 0x1c, 0x1d, 0x3b, 0x01, 0x0e, 0x1e, 0x0e, 0x39, 0x2f, 0x3e, 0xfc, 0x49, 0x0c, 0x29, 0x07, 0x3a, 0x34, 0x30, 0x45, 0x1a, 0x0a, 0x1f, 0x3e, 0x05, 0x3f, 0x07, 0x2a, 0x2f, 0xf6, 0x02, 0x02, 0xf2, 0xfd, 0xfd, 0x2f, 0x32, 0x04, 0xf2, 0x17, 0x17, 0x49, 0x20, 0x29, 0xf4, 0x14, 0xfa, 0x04, 0xdf, 0xed, 0xe8, 0x0c, 0x24, 0x10, 0x06, 0xd8, 0xef, 0xaf, 0xde, 0xb8, 0xfc, 0x16, 0xf6, 0xf0, 0x01, 0xec, 0xd6, 0xf6, 0xf5, 0xe0, 0x0f, 0x06, 0x0b, 0xe4, 0x0c, 0x0f, 0x19, 0xfd, 0xc6, 0xf1, 0xd0, 0x27, 0xf9, 0xfb, 0x2c, 0xe6, 0x1a, 0xbc, 0x14, 0xcd, 0xc6, 0xf8, 0x25, 0xf5, 0x01, 0xc6, 0xa1, 0xd7, 0xfb, 0x0b, 0x16, 0xf7, 0x07, 0x07, 0xe3, 0x81, 0xde, 0xd8, 0x22, 0x06, 0xe1, 0xfc, 0x14, 0x2e, 0xf3, 0x00, 0x0d, 0x0b, 0xfd, 0xd0, 0x08, 0xdd, 0x16, 0x12, 0xf0, 0xf8, 0x09, 0xf2, 0xd4, 0x1c, 0xea, 0x0f, 0x12, 0xe0, 0xfe, 0xf4, 0x20, 0xc1, 0xcb, 0xec, 0x03, 0xdf, 0xca, 0xc7, 0xaf, 0x06, 0xd3, 0xe3, 0x1e, 0xd6, 0x07, 0x10, 0xbe, 0xf2, 0xf4, 0xe3, 0xca, 0xd2, 0x15, 0xdf, 0x22, 0x20, 0xfe, 0x29, 0xf7, 0xe5, 0xf1, 0xd6, 0x2c, 0x10, 0x1a, 0x18, 0xef, 0x12, 0xdd, 0x24, 0x03, 0x24, 0x2f, 0x1f, 0x11, 0x10, 0xf7, 0xe9, 0x03, 0xe8, 0xde, 0xdb, 0x0b, 0xee, 0xc8, 0xe2, 0x0c, 0xf5, 0xfb, 0x0a, 0x1d, 0x3d, 0x11, 0xc0, 0xd8, 0x07, 0xdb, 0xfa, 0x19, 0x0b, 0x42, 0xee, 0xd1, 0xa3, 0xc9, 0xd3, 0xfb, 0x20, 0xa9, 0xec, 0x2f, 0x30, 0x06, 0xf2, 0xdd, 0xc7, 0x87, 0xb6, 0x92, 0xc4, 0x99, 0xce, 0xb3, 0x99, 0x8d, 0xf8, 0xf9, 0xf4, 0x0c, 0xac, 0xd9, 0x21, 0xf9, 0x11, 0x29, 0xf9, 0x5a, 0x32, 0xfe, 0x32, 0x3a, 0xde, 0x31, 0x25, 0x03, 0x08, 0xd5, 0xfb, 0xd6, 0xfb, 0x33, 0x09, 0x24, 0x31, 0x39, 0x18, 0xcf, 0x10, 0xe2, 0xf2, 0xeb, 0xc4, 0x12, 0xe7, 0xef, 0xd8, 0xa5, 0x0f, 0xd9, 0xae, 0xcf, 0xef, 0x02, 0xe3, 0x14, 0x17, 0xbe, 0xfe, 0x81, 0xf2, 0x33, 0xd3, 0x32, 0xf8, 0x18, 0x12, 0x15, 0x3e, 0x1f, 0xe1, 0x16, 0x3b, 0x29, 0x18, 0x0f, 0x16, 0xfa, 0x0c, 0x19, 0xb2, 0xe0, 0xce, 0x10, 0xe7, 0x0c, 0x2b, 0xe5, 0xbc, 0x05, 0xc9, 0xf1, 0xfb, 0xd0, 0xe2, 0xf7, 0x8d, 0x05, 0x0c, 0x14, 0xe7, 0xa1, 0x9a, 0xb9, 0xd8, 0x09, 0xae, 0x04, 0xd9, 0x0c, 0x0c, 0x04, 0x21, 0xf6, 0x20, 0x25, 0xf9, 0x31, 0xf0, 0x09, 0x08, 0xee, 0xee, 0xf5, 0x0a, 0x07, 0xfb, 0x04, 0xb4, 0xc6, 0x15, 0xdd, 0xd3, 0x29, 0xc7, 0xe9, 0xf0, 0x17, 0xe5, 0xed, 0xea, 0xa8, 0x00, 0xda, 0xaa, 0xb4, 0xb2, 0xc6, 0xf8, 0xd6, 0xe9, 0x8c, 0xf1, 0xbe, 0x81, 0x92, 0x94, 0xea, 0xf6, 0x14, 0x33, 0xe1, 0xed, 0x21, 0x18, 0x1f, 0x22, 0xf1, 0x14, 0x0c, 0x18, 0x23, 0xfe, 0xf3, 0x04, 0xf5, 0xa5, 0x23, 0x1e, 0x11, 0x1e, 0xe7, 0x02, 0x34, 0x4d, 0xc3, 0xf0, 0x0c, 0xde, 0xe1, 0x9d, 0xbf, 0x01, 0xcf, 0xd7, 0xf3, 0xee, 0x96, 0xe3, 0xec, 0xcc, 0x0f, 0x95, 0xc5, 0xb4, 0xfa, 0x01, 0x26, 0x15, 0x3e, 0xe9, 0x1e, 0x01, 0x23, 0x08, 0x2e, 0x24, 0xd9, 0xe7, 0x16, 0x2b, 0x30, 0x21, 0x03, 0x06, 0xf5, 0xde, 0xff, 0x04, 0x01, 0x0c, 0x30, 0x16, 0x35, 0xe3, 0x2f, 0xff, 0xf3, 0x06, 0xf4, 0xf6, 0x09, 0xb9, 0xd5, 0xd8, 0x0c, 0x9f, 0xe8, 0x09, 0xcc, 0xb1, 0x29, 0xf3, 0x25, 0x06, 0xdd, 0x1d, 0xf4, 0x0e, 0xf4, 0x0b, 0xe1, 0xd5, 0xc5, 0x1e, 0xf5, 0x0e, 0x0f, 0xfc, 0xf5, 0x3d, 0xb0, 0x1d, 0x29, 0x4a, 0xef, 0xfe, 0xff, 0x0b, 0xdf, 0x2f, 0x29, 0xf1, 0xfd, 0x28, 0x28, 0xc3, 0xb8, 0x28, 0xf3, 0x13, 0xe0, 0x31, 0x14, 0xd4, 0xba, 0xea, 0xd0, 0xd1, 0xcf, 0x2a, 0xeb, 0xfe, 0xd6, 0xea, 0xe5, 0xe5, 0xed, 0xfd, 0xb9, 0x02, 0xae, 0x31, 0xfc, 0xc1, 0xe9, 0x19, 0x1e, 0xea, 0xb5, 0xec, 0xd6, 0x04, 0x81, 0x9f, 0x08, 0x17, 0x98, 0x4a, 0x02, 0xc3, 0xe1, 0x50, 0x25, 0xd5, 0xe6, 0xf1, 0x08, 0x25, 0xc0, 0xea, 0xbf, 0x22, 0x9d, 0x28, 0x1a, 0xde, 0xe7, 0x21, 0xe2, 0xfe, 0xf9, 0xd5, 0xb8, 0x30, 0xd1, 0xbc, 0xeb, 0x14, 0xf4, 0x1d, 0x28, 0xcd, 0xf1, 0xfd, 0x1a, 0xf3, 0xf7, 0xea, 0x06, 0x03, 0xa0, 0xae, 0xfc, 0xe8, 0xc9, 0x23, 0xfb, 0x11, 0x1d, 0xf2, 0xfa, 0xff, 0x06, 0xe0, 0x24, 0xf6, 0xc4, 0xf1, 0xeb, 0x12, 0xf4, 0x0f, 0x0b, 0x26, 0xf6, 0xf0, 0x22, 0x1e, 0xb6, 0x00, 0xaf, 0xc6, 0x49, 0xda, 0xb7, 0xb5, 0xbe, 0xdf, 0xf1, 0xbf, 0xa2, 0x1b, 0x03, 0xe8, 0xb3, 0x17, 0xc0, 0x24, 0xe5, 0xe1, 0x0a, 0x1d, 0xce, 0x00, 0xe3, 0x11, 0x13, 0xeb, 0x6e, 0x20, 0x2b, 0x2a, 0xf4, 0x57, 0x15, 0x12, 0x42, 0x3f, 0x1e, 0x42, 0x64, 0x51, 0x34, 0x30, 0xcd, 0x07, 0xdc, 0x05, 0x81, 0xd5, 0x24, 0xb4, 0xd8, 0xbf, 0xaa, 0xce, 0xc6, 0xa8, 0x0b, 0xe7, 0xf1, 0x13, 0xa0, 0xf9, 0xf6, 0xfc, 0x0d, 0xd4, 0x3f, 0x0e, 0xc0, 0x0e, 0xe0, 0xf0, 0x24, 0xe8, 0x47, 0xe2, 0x61, 0x00, 0x3d, 0x2a, 0xf4, 0xe0, 0x54, 0x11, 0x07, 0x2f, 0x34, 0x4f, 0xd5, 0x26, 0xfa, 0xe3, 0xcd, 0x04, 0x92, 0xa8, 0xb2, 0x96, 0x94, 0xbb, 0xc9, 0xd7, 0xe8, 0xda, 0xb7, 0xdf, 0x12, 0xbf, 0xcb, 0xc6, 0xc6, 0xbd, 0xdf, 0xef, 0x19, 0xf1, 0xc8, 0xd8, 0xd1, 0xfe, 0x10, 0xd1, 0x05, 0x1f, 0xf7, 0xe9, 0x05, 0x23, 0x09, 0x1d, 0x46, 0x00, 0x0d, 0x23, 0xeb, 0x30, 0x0d, 0x22, 0x0e, 0xb0, 0xa2, 0xb6, 0xce, 0xef, 0xe6, 0x96, 0x41, 0xf2, 0x19, 0xad, 0x9f, 0x81, 0xd4, 0xc0, 0xb8, 0xe8, 0x32, 0xba, 0xdf, 0xc7, 0xda, 0xd3, 0x35, 0xa5, 0xd0, 0xc3, 0xdd, 0x10, 0x04, 0xc8, 0x23, 0xef, 0xff, 0x10, 0x17, 0x0f, 0x00, 0x33, 0xfc, 0xe1, 0xf1, 0x18, 0xf2, 0xe9, 0x24, 0x00, 0xed, 0xfa, 0x9c, 0xed, 0xfd, 0xfd, 0x0f, 0x87, 0xf9, 0xa6, 0xd6, 0xb8, 0x02, 0xd3, 0xd0, 0x01, 0xbd, 0x0a, 0xf6, 0xf9, 0xb2, 0xec, 0x3e, 0xee, 0x0c, 0xa7, 0x1b, 0xf3, 0xcb, 0x02, 0xe0, 0xa6, 0xf7, 0xf9, 0x00, 0x0b, 0xf2, 0x20, 0x13, 0xf5, 0x1d, 0xb0, 0xfa, 0x10, 0x1f, 0x17, 0x00, 0x10, 0x1f, 0x30, 0x1b, 0x01, 0x09, 0x15, 0x0b, 0x17, 0x18, 0x3b, 0xe8, 0x1d, 0x0b, 0xdc, 0x22, 0x17, 0xbe, 0xe0, 0xdb, 0xe8, 0xf5, 0xbc, 0xf6, 0x29, 0x00, 0xec, 0x1c, 0xe2, 0x18, 0x2b, 0x30, 0xd7, 0x04, 0x0b, 0xff, 0xfb, 0xd9, 0xef, 0xf8, 0xf9, 0xdd, 0xdf, 0xe4, 0xec, 0xcd, 0x06, 0xe8, 0x11, 0x20, 0x26, 0xfe, 0x03, 0x36, 0xda, 0xcd, 0xfd, 0x02, 0x07, 0xdf, 0x0b, 0x04, 0x15, 0x0a, 0x11, 0x25, 0x3d, 0xda, 0xf2, 0x44, 0xe5, 0xfb, 0xeb, 0x1e, 0x3b, 0xa3, 0x22, 0x22, 0x09, 0x04, 0x38, 0x07, 0x13, 0xa2, 0x02, 0xe9, 0xe6, 0xa5, 0x1f, 0xb7, 0x33, 0x8f, 0x0f, 0xfb, 0xd6, 0x16, 0x0c, 0x14, 0x19, 0xcd, 0xa7, 0xe2, 0xed, 0xba, 0xfb, 0x1d, 0x26, 0xf0, 0x33, 0x1e, 0x18, 0xe9, 0x1c, 0x04, 0x1e, 0xf3, 0xde, 0x1a, 0xe9, 0xaa, 0xfd, 0xd0, 0x3c, 0xcf, 0x2f, 0xf2, 0xeb, 0xfc, 0xeb, 0xf6, 0xfd, 0xa5, 0xeb, 0x1e, 0x0d, 0xb9, 0xff, 0xb9, 0x2f, 0x81, 0xfc, 0x00, 0xf5, 0xd7, 0xee, 0x0c, 0x37, 0xe4, 0x9f, 0xf8, 0xc6, 0xde, 0xdb, 0xcc, 0xf4, 0xa8, 0x00, 0xcb, 0xfb, 0xe9, 0xf8, 0x10, 0x4d, 0xf2, 0xcd, 0xf7, 0xc2, 0xb2, 0x07, 0x01, 0x2c, 0x9d, 0xed, 0xfd, 0xf2, 0xf2, 0x1d, 0xfd, 0x3b, 0xc8, 0xe4, 0x01, 0xd3, 0xce, 0xfe, 0xd2, 0x46, 0xcd, 0x0e, 0x0c, 0x00, 0xc1, 0xf3, 0x27, 0x48, 0x2c, 0x3b, 0xf9, 0x22, 0x21, 0x45, 0x56, 0x30, 0x26, 0x0d, 0x1c, 0x1f, 0x0a, 0xff, 0x05, 0x1a, 0x1f, 0xff, 0xf9, 0x4a, 0x29, 0xe9, 0x2b, 0x13, 0x23, 0x31, 0x52, 0xfa, 0x4b, 0xfb, 0xed, 0x11, 0xee, 0x32, 0x0a, 0x02, 0x04, 0x06, 0x41, 0x3b, 0x17, 0x0f, 0x1d, 0x0d, 0x51, 0xe8, 0x16, 0xed, 0xec, 0x04, 0xf9, 0x1a, 0xfc, 0xc0, 0x41, 0x1f, 0xce, 0x19, 0x1e, 0x0a, 0x2b, 0x07, 0x2e, 0x29, 0x50, 0x26, 0x14, 0x33, 0x3f, 0xf4, 0x26, 0x37, 0x02, 0x1e, 0x3f, 0xf8, 0x4b, 0x0b, 0x24, 0x20, 0xf3, 0x4a, 0x06, 0x3d, 0x28, 0xee, 0x5a, 0xf9, 0x3b, 0xfd, 0x3b, 0x16, 0x43, 0x01, 0xe8, 0x09, 0xcf, 0xc4, 0xbf, 0xa3, 0xff, 0xab, 0xa7, 0xf7, 0x81, 0xc7, 0x0b, 0xee, 0xec, 0xd7, 0xf6, 0xd3, 0xf6, 0xe8, 0x05, 0x19, 0xd0, 0xd9, 0x01, 0x19, 0xcd, 0x24, 0x09, 0xdc, 0x15, 0xf8, 0x26, 0xf4, 0x1c, 0x29, 0x04, 0x04, 0x14, 0xf7, 0x41, 0xe7, 0xee, 0x02, 0x1f, 0x1c, 0xfa, 0xef, 0x0b, 0xd5, 0x42, 0x0a, 0x31, 0x32, 0x1a, 0x49, 0x3b, 0x42, 0x27, 0x2d, 0x38, 0x53, 0xdd, 0x0b, 0x7c, 0x4d, 0x2b, 0xd9, 0x7d, 0x2a, 0xf9, 0x3e, 0xf3, 0x74, 0x04, 0x3b, 0x1f, 0x25, 0xea, 0x57, 0x3a, 0x3c, 0xd8, 0xff, 0x3b, 0x0c, 0xf2, 0x08, 0x15, 0x3b, 0xf8, 0x24, 0x48, 0x04, 0x48, 0x5e, 0x3c, 0xb5, 0x66, 0xe6, 0x1f, 0xda, 0xe4, 0xfc, 0xec, 0x1f, 0x2d, 0x02, 0xf0, 0x67, 0x05, 0x16, 0x0c, 0x77, 0x43, 0xc6, 0x33, 0x3c, 0x09, 0x1d, 0xde, 0x7f, 0xeb, 0xfa, 0x57, 0x16, 0xf0, 0x07, 0x42, 0x23, 0x10, 0x38, 0x48, 0x33, 0x0c, 0xff, 0x11, 0x6c, 0x07, 0x09, 0x2e, 0x4a, 0x16, 0x5f, 0x1a, 0x1e, 0x41, 0xba, 0x32, 0xdf, 0x0c, 0x13, 0x02, 0xfa, 0x2c, 0xf0, 0xf9, 0x2d, 0xe4, 0x2e, 0x24, 0x5c, 0x4b, 0xf7, 0x21, 0x01, 0x21, 0x36, 0xdf, 0x1c, 0xc6, 0xdd, 0x37, 0xdc, 0xf6, 0x2c, 0x39, 0x37, 0x08, 0x25, 0x13, 0x2f, 0x32, 0x1f, 0x12, 0x3c, 0x12, 0x5c, 0xea, 0x16, 0x02, 0x49, };
static const float weight_fp1[4608] = {16.0, 3.0, 10.0, 52.0, -1.0, 6.0, 8.0, -12.0, 15.0, 20.0, 25.0, -23.0, 25.0, 25.0, 19.0, -19.0, 44.0, 7.0, 65.0, 31.0, 16.0, 46.0, 3.0, 39.0, 37.0, -27.0, 3.0, 5.0, -23.0, 69.0, -4.0, -42.0, -9.0, -10.0, -109.0, 37.0, -98.0, 6.0, 29.0, -7.0, 25.0, -30.0, -91.0, -105.0, -125.0, -54.0, -22.0, -18.0, 41.0, -3.0, 15.0, -2.0, 1.0, -15.0, -5.0, -20.0, -31.0, -33.0, 23.0, -7.0, -10.0, 24.0, -2.0, -3.0, -8.0, -39.0, 13.0, -6.0, 1.0, 18.0, 8.0, -12.0, 38.0, -105.0, -6.0, -4.0, -45.0, 44.0, 16.0, -27.0, 16.0, -49.0, -121.0, 21.0, -77.0, -23.0, 10.0, -20.0, -1.0, -32.0, -65.0, -77.0, -101.0, -127.0, -61.0, -31.0, -9.0, 4.0, -9.0, -42.0, 7.0, -2.0, 5.0, 5.0, -58.0, -18.0, -2.0, -7.0, 14.0, 11.0, -19.0, 17.0, 27.0, -23.0, -3.0, -27.0, -25.0, -33.0, -36.0, -2.0, -37.0, -66.0, 8.0, 26.0, 0.0, 62.0, 19.0, 43.0, 54.0, 22.0, -105.0, 16.0, -6.0, 11.0, -26.0, -13.0, -20.0, -32.0, -24.0, -44.0, -52.0, -50.0, -53.0, -36.0, 7.0, -34.0, -39.0, 28.0, 11.0, -5.0, -26.0, 25.0, -37.0, -3.0, 10.0, -33.0, 13.0, -19.0, -69.0, 32.0, 34.0, -11.0, -12.0, -20.0, 52.0, -11.0, -18.0, -24.0, -83.0, 21.0, 33.0, 67.0, 42.0, 1.0, -3.0, 57.0, -38.0, 31.0, -13.0, -40.0, 34.0, -74.0, -27.0, -39.0, 29.0, 39.0, 41.0, 19.0, 20.0, 36.0, 28.0, 33.0, 27.0, 23.0, -67.0, 22.0, 23.0, -38.0, -14.0, -60.0, -21.0, 15.0, -31.0, -18.0, 2.0, 3.0, -3.0, 62.0, -11.0, 44.0, -20.0, -37.0, -11.0, -29.0, -16.0, -125.0, -83.0, 54.0, 14.0, -2.0, 15.0, -32.0, -43.0, 16.0, -5.0, 44.0, 26.0, -57.0, 42.0, -77.0, -44.0, -42.0, 37.0, 15.0, -22.0, -11.0, -33.0, -8.0, -11.0, 13.0, 0.0, -27.0, -42.0, -8.0, -11.0, 31.0, -10.0, -34.0, -3.0, -6.0, -17.0, -59.0, -15.0, -84.0, -61.0, 36.0, -28.0, 35.0, 1.0, -63.0, -100.0, -35.0, 32.0, -79.0, -85.0, 40.0, 75.0, 3.0, 11.0, -88.0, -29.0, -11.0, -122.0, -12.0, 30.0, 9.0, 18.0, -127.0, -15.0, 14.0, 1.0, -27.0, -8.0, -56.0, -61.0, -13.0, -11.0, -51.0, 46.0, 34.0, -22.0, -25.0, 50.0, 34.0, -64.0, 12.0, -41.0, 12.0, 22.0, 47.0, 15.0, 12.0, 11.0, 52.0, -1.0, 21.0, -48.0, 1.0, 74.0, -67.0, -15.0, -6.0, -68.0, -32.0, -17.0, 33.0, -17.0, 51.0, -1.0, 31.0, 2.0, 97.0, -54.0, -85.0, 3.0, 19.0, -32.0, -16.0, -74.0, 53.0, 6.0, 61.0, 14.0, -114.0, -121.0, 54.0, 46.0, 54.0, -58.0, -52.0, 72.0, 27.0, 7.0, 43.0, -4.0, 24.0, -69.0, 14.0, 10.0, 3.0, 21.0, 67.0, 36.0, 32.0, -41.0, 26.0, -36.0, -59.0, -4.0, 69.0, -29.0, -17.0, 32.0, -33.0, 18.0, 7.0, -25.0, 41.0, 5.0, -73.0, -80.0, -3.0, -113.0, 45.0, -2.0, -59.0, -17.0, -14.0, -82.0, -71.0, 8.0, -109.0, -72.0, 40.0, 47.0, -5.0, -16.0, -3.0, 17.0, 22.0, -32.0, 20.0, -16.0, 15.0, -1.0, -24.0, 24.0, 23.0, -9.0, -15.0, -59.0, 6.0, 36.0, -3.0, -22.0, 4.0, -59.0, -6.0, 46.0, -59.0, -10.0, 12.0, -17.0, 0.0, -50.0, -78.0, -8.0, 1.0, -123.0, -19.0, -127.0, 18.0, -77.0, -23.0, -59.0, -48.0, -73.0, -90.0, -10.0, -90.0, -67.0, -58.0, -46.0, -13.0, 6.0, 4.0, -94.0, -22.0, -3.0, -11.0, 29.0, 10.0, -41.0, -42.0, 43.0, -52.0, -34.0, -3.0, 5.0, -45.0, 7.0, 20.0, -77.0, 7.0, -45.0, 23.0, -33.0, 5.0, 52.0, 23.0, 35.0, -20.0, -62.0, -8.0, -61.0, -26.0, -38.0, -10.0, -25.0, -77.0, 22.0, 10.0, 33.0, 63.0, 17.0, 12.0, -49.0, 22.0, -24.0, -70.0, 56.0, 41.0, -10.0, 82.0, -56.0, 7.0, 7.0, 34.0, 17.0, -26.0, -30.0, -2.0, -1.0, 21.0, 10.0, -68.0, 1.0, 9.0, 11.0, -63.0, -102.0, 15.0, -39.0, -24.0, 27.0, 12.0, 40.0, -20.0, 44.0, -39.0, -20.0, 5.0, -118.0, -22.0, -118.0, 18.0, -29.0, -127.0, -9.0, 7.0, -13.0, 39.0, -41.0, -36.0, -10.0, -84.0, -14.0, -80.0, 2.0, 20.0, -39.0, 46.0, -35.0, -17.0, 26.0, -3.0, -34.0, 17.0, -8.0, -6.0, -55.0, 20.0, 16.0, -51.0, -24.0, 22.0, -13.0, 27.0, -26.0, 14.0, -29.0, -96.0, 14.0, -24.0, -28.0, 0.0, -37.0, 14.0, 31.0, -71.0, -93.0, -44.0, -46.0, -42.0, -61.0, -120.0, -13.0, -23.0, -20.0, 10.0, -31.0, -87.0, -20.0, -11.0, -43.0, -19.0, -66.0, -73.0, -127.0, 18.0, -68.0, -121.0, -91.0, 3.0, -33.0, -104.0, 17.0, -72.0, -34.0, 28.0, -49.0, -7.0, -41.0, -84.0, -54.0, -70.0, 5.0, -39.0, -57.0, -63.0, -52.0, -53.0, -12.0, -83.0, 73.0, -4.0, 12.0, 54.0, -24.0, 13.0, 20.0, -44.0, -9.0, -53.0, -54.0, -13.0, -15.0, 14.0, 12.0, 1.0, 41.0, -11.0, -52.0, -56.0, -59.0, -2.0, -54.0, -52.0, 20.0, -17.0, -15.0, -50.0, -42.0, -94.0, -12.0, -72.0, -57.0, -89.0, -51.0, -80.0, 25.0, -57.0, 27.0, -66.0, -30.0, 17.0, -24.0, -63.0, 3.0, -74.0, 95.0, 23.0, 64.0, -18.0, -63.0, 31.0, -4.0, 33.0, -40.0, -7.0, -33.0, -3.0, 16.0, -17.0, -14.0, -17.0, -32.0, 2.0, 7.0, 7.0, 19.0, 4.0, -112.0, -41.0, 14.0, 14.0, -20.0, 18.0, 50.0, -5.0, 8.0, -88.0, -57.0, -90.0, -15.0, 12.0, -88.0, -39.0, -9.0, -111.0, -25.0, -52.0, 9.0, -30.0, -2.0, -27.0, -48.0, 16.0, 86.0, -31.0, 63.0, -84.0, -6.0, 27.0, 32.0, 5.0, 70.0, 7.0, 4.0, 13.0, 46.0, -2.0, 60.0, 36.0, 28.0, -35.0, -11.0, 59.0, 49.0, -3.0, 7.0, -33.0, 7.0, -90.0, 34.0, -28.0, -125.0, -49.0, -104.0, -49.0, -13.0, 10.0, -28.0, 15.0, -93.0, 57.0, -68.0, 10.0, -44.0, -92.0, -52.0, -63.0, -38.0, -49.0, -75.0, -5.0, -37.0, -3.0, -5.0, -27.0, -113.0, 24.0, 14.0, -93.0, -108.0, -104.0, -90.0, -40.0, -99.0, -34.0, -115.0, 24.0, -127.0, 13.0, 12.0, -12.0, -117.0, 53.0, 25.0, 52.0, -54.0, -16.0, 22.0, -38.0, -59.0, -1.0, -26.0, 26.0, 24.0, 12.0, 5.0, 47.0, -19.0, 47.0, 60.0, 9.0, 27.0, -102.0, 18.0, -21.0, -38.0, -10.0, -74.0, 32.0, -97.0, 22.0, 49.0, -31.0, -24.0, 42.0, 44.0, 13.0, -26.0, -62.0, 24.0, 46.0, -77.0, 29.0, -96.0, 45.0, -52.0, 12.0, 2.0, 40.0, -58.0, 85.0, 53.0, 50.0, 24.0, -26.0, 19.0, -22.0, -35.0, 3.0, 10.0, -20.0, -12.0, -18.0, 4.0, -14.0, 5.0, 9.0, 59.0, 10.0, 2.0, -9.0, 44.0, 41.0, -15.0, 15.0, 10.0, 44.0, 4.0, 22.0, 97.0, 15.0, -37.0, 33.0, 11.0, 67.0, 36.0, 4.0, 12.0, 27.0, 28.0, 6.0, 2.0, 74.0, 51.0, 5.0, -2.0, 16.0, 10.0, 53.0, 51.0, -24.0, 37.0, 7.0, -13.0, 71.0, 45.0, 8.0, 34.0, -25.0, 60.0, -54.0, -22.0, 84.0, 79.0, 50.0, 61.0, 6.0, 41.0, -5.0, 109.0, 27.0, 12.0, -15.0, 20.0, 46.0, -35.0, 51.0, 127.0, 33.0, 75.0, 64.0, 35.0, 66.0, 11.0, 44.0, 94.0, 15.0, -20.0, -21.0, 3.0, 108.0, -41.0, 44.0, 86.0, -10.0, 59.0, 53.0, 54.0, -32.0, 26.0, 7.0, 52.0, 22.0, -25.0, 4.0, 5.0, -7.0, -91.0, 23.0, -49.0, 26.0, -18.0, 52.0, 123.0, 38.0, 27.0, -48.0, 105.0, 62.0, -54.0, 57.0, -7.0, 64.0, -17.0, -9.0, 97.0, 55.0, 61.0, 106.0, 45.0, 86.0, -9.0, 55.0, -5.0, 2.0, -26.0, 1.0, 59.0, 58.0, -25.0, 15.0, 38.0, -32.0, -8.0, 70.0, 33.0, -9.0, -56.0, -114.0, 49.0, -31.0, -50.0, -32.0, 4.0, 10.0, -61.0, 35.0, 2.0, -8.0, -56.0, 67.0, 75.0, 43.0, 55.0, -69.0, 15.0, -24.0, -40.0, -6.0, -13.0, 41.0, -67.0, 51.0, 55.0, 8.0, -33.0, 77.0, 41.0, 22.0, -17.0, 65.0, -11.0, 1.0, -51.0, -10.0, 21.0, 45.0, 13.0, 77.0, 10.0, 32.0, 34.0, -1.0, 4.0, -16.0, -38.0, -16.0, -36.0, 18.0, -20.0, -50.0, 3.0, 20.0, 2.0, 27.0, 4.0, 5.0, -21.0, 25.0, -35.0, 27.0, -76.0, -9.0, -3.0, -6.0, -3.0, -68.0, -83.0, -37.0, -64.0, 4.0, -27.0, -40.0, -22.0, -6.0, 11.0, -30.0, -56.0, -61.0, -97.0, -21.0, -127.0, -78.0, -6.0, 21.0, -112.0, 22.0, -10.0, -34.0, -33.0, -41.0, 52.0, -12.0, -19.0, -46.0, 11.0, -34.0, -3.0, 21.0, 2.0, 19.0, -12.0, 70.0, 0.0, 34.0, 12.0, 46.0, 12.0, 45.0, -82.0, -33.0, 6.0, 13.0, -103.0, 9.0, -55.0, 28.0, -9.0, 38.0, -35.0, 8.0, -59.0, 27.0, 14.0, -5.0, -72.0, 14.0, 5.0, -64.0, -56.0, 13.0, -27.0, -25.0, -27.0, -13.0, -9.0, -46.0, -1.0, 22.0, 46.0, 34.0, -2.0, -3.0, 42.0, 9.0, -13.0, 42.0, 15.0, 30.0, 12.0, 38.0, -32.0, 15.0, 29.0, 23.0, 32.0, 5.0, 19.0, -5.0, 1.0, 9.0, -65.0, -14.0, 13.0, 37.0, 13.0, 53.0, 57.0, 1.0, -33.0, 42.0, 6.0, -6.0, -40.0, 2.0, 16.0, 14.0, -50.0, 46.0, -6.0, -18.0, 22.0, -16.0, 41.0, 45.0, -15.0, 11.0, -20.0, -86.0, -18.0, -48.0, -30.0, -65.0, -114.0, -13.0, -105.0, 26.0, -73.0, 34.0, -20.0, -4.0, -5.0, 52.0, 9.0, -9.0, -99.0, -37.0, -89.0, -37.0, -47.0, -10.0, -14.0, -3.0, -127.0, -7.0, -66.0, -44.0, -32.0, -14.0, 17.0, -6.0, -67.0, -32.0, 16.0, -59.0, -52.0, -43.0, -21.0, 0.0, -94.0, 79.0, -41.0, -54.0, -50.0, 39.0, -2.0, 18.0, -11.0, -13.0, -22.0, 7.0, -119.0, -39.0, -55.0, 68.0, -89.0, -15.0, -59.0, -24.0, -67.0, 46.0, -4.0, 71.0, -16.0, -37.0, -22.0, 41.0, -101.0, -88.0, 17.0, 44.0, -62.0, 18.0, -45.0, -44.0, -16.0, 43.0, 24.0, 16.0, -77.0, -45.0, 10.0, -16.0, -65.0, -15.0, 30.0, 10.0, -85.0, 64.0, 44.0, -37.0, -20.0, 27.0, 67.0, 1.0, 4.0, -52.0, -14.0, 39.0, -84.0, -22.0, -12.0, -2.0, 5.0, 40.0, -26.0, -22.0, 10.0, 52.0, 38.0, 55.0, -9.0, 29.0, -11.0, -12.0, -23.0, -41.0, 1.0, 36.0, 1.0, 11.0, -22.0, 28.0, -54.0, 12.0, 28.0, 19.0, -11.0, 15.0, 30.0, -34.0, 30.0, 19.0, -19.0, 11.0, 5.0, -30.0, 14.0, 44.0, 25.0, 43.0, -8.0, 22.0, 4.0, 40.0, 23.0, 22.0, 33.0, 19.0, 12.0, 60.0, 29.0, 19.0, -19.0, 18.0, -10.0, 29.0, 9.0, -24.0, -30.0, 3.0, -40.0, 69.0, -32.0, -14.0, -29.0, 3.0, 66.0, 73.0, 29.0, -5.0, 62.0, 49.0, -13.0, -24.0, 25.0, 49.0, 48.0, 32.0, 91.0, 29.0, 65.0, 24.0, 55.0, 29.0, 8.0, 37.0, 58.0, 23.0, -2.0, 43.0, -13.0, 38.0, -54.0, 1.0, 33.0, 44.0, 11.0, 46.0, -11.0, 67.0, -23.0, -51.0, 41.0, 32.0, 21.0, 23.0, -2.0, 66.0, -21.0, 38.0, 34.0, -4.0, 42.0, 2.0, 95.0, 71.0, -28.0, -12.0, 68.0, -33.0, 42.0, -40.0, 55.0, 127.0, 4.0, 11.0, 16.0, 64.0, 79.0, 21.0, 59.0, -9.0, 47.0, 35.0, 57.0, 4.0, 37.0, 28.0, 15.0, 69.0, 84.0, 42.0, 11.0, 41.0, 48.0, 79.0, 41.0, 48.0, 15.0, -12.0, 23.0, -8.0, 43.0, 7.0, 57.0, 35.0, -10.0, 66.0, 87.0, 48.0, 22.0, 9.0, 93.0, 96.0, 14.0, 17.0, 37.0, 37.0, 56.0, -21.0, 67.0, 77.0, 101.0, 12.0, 19.0, 44.0, 50.0, 26.0, 76.0, 68.0, 61.0, 37.0, 72.0, 72.0, -16.0, -15.0, 1.0, 13.0, -46.0, -36.0, -40.0, -51.0, -38.0, -16.0, -23.0, 32.0, -50.0, -21.0, -21.0, -17.0, -5.0, 13.0, 0.0, -23.0, -76.0, 8.0, -103.0, -38.0, -27.0, 13.0, -19.0, -43.0, 10.0, 34.0, 37.0, 33.0, 38.0, -8.0, -43.0, -28.0, -19.0, -23.0, -47.0, -44.0, 39.0, -59.0, -99.0, -104.0, -127.0, -62.0, -50.0, -4.0, -65.0, -43.0, -57.0, 11.0, -1.0, 8.0, -47.0, -46.0, -19.0, -45.0, 5.0, 56.0, 19.0, 16.0, -33.0, 32.0, -6.0, 58.0, -37.0, -6.0, -76.0, 58.0, -52.0, -8.0, -63.0, 36.0, 33.0, -7.0, -33.0, 15.0, 43.0, 41.0, -32.0, -83.0, -76.0, -27.0, 8.0, -30.0, -41.0, -71.0, 44.0, -1.0, 18.0, -30.0, -101.0, -37.0, -26.0, -11.0, -11.0, 7.0, 5.0, 11.0, -8.0, -28.0, -38.0, -9.0, 34.0, -26.0, 14.0, 6.0, -2.0, -49.0, 39.0, -39.0, 27.0, 19.0, 24.0, 29.0, 10.0, 52.0, -34.0, 10.0, 13.0, 8.0, 25.0, -2.0, 41.0, -37.0, 70.0, 42.0, -26.0, 2.0, -98.0, 12.0, -16.0, -19.0, -28.0, -40.0, 49.0, -6.0, 21.0, -11.0, -69.0, -58.0, 3.0, 5.0, -2.0, 4.0, 21.0, -5.0, 13.0, -1.0, -20.0, 4.0, -13.0, 24.0, 17.0, 37.0, 74.0, 42.0, 56.0, 8.0, 12.0, 70.0, 47.0, 23.0, 8.0, 65.0, 1.0, 15.0, 3.0, 61.0, 38.0, 14.0, 15.0, -2.0, -22.0, 3.0, -1.0, 60.0, 4.0, -2.0, 9.0, 56.0, -18.0, 12.0, 29.0, 21.0, 27.0, -12.0, 2.0, 11.0, 101.0, 22.0, 90.0, -2.0, 43.0, 11.0, 43.0, 77.0, -24.0, 15.0, 20.0, 50.0, 60.0, 21.0, -5.0, 70.0, 55.0, 16.0, 127.0, 31.0, 98.0, 26.0, 10.0, 75.0, 37.0, 0.0, 83.0, 57.0, -13.0, 64.0, 85.0, 35.0, 45.0, -48.0, -13.0, 39.0, -24.0, 67.0, 30.0, 29.0, 10.0, 24.0, 77.0, 16.0, -10.0, 76.0, 26.0, -49.0, 65.0, 4.0, 81.0, 30.0, 27.0, 70.0, 75.0, 10.0, 29.0, 37.0, 71.0, 60.0, 13.0, 57.0, -4.0, 41.0, 39.0, 20.0, 82.0, 39.0, 21.0, 10.0, 83.0, 47.0, 18.0, 88.0, 68.0, 61.0, 48.0, 107.0, 74.0, 79.0, 120.0, 38.0, 12.0, 22.0, 43.0, 72.0, 46.0, 63.0, 8.0, 89.0, 37.0, 78.0, 45.0, 94.0, 31.0, -12.0, 69.0, -38.0, 42.0, 0.0, 15.0, -21.0, -1.0, -24.0, -8.0, -10.0, -19.0, 20.0, -65.0, 44.0, 14.0, 28.0, 2.0, 62.0, 3.0, 35.0, 4.0, -67.0, 46.0, -73.0, -31.0, 31.0, -41.0, 40.0, -5.0, 23.0, -9.0, 5.0, -58.0, 45.0, 23.0, 11.0, 34.0, 1.0, 30.0, -7.0, -3.0, 15.0, 1.0, 12.0, -14.0, 37.0, 53.0, -4.0, -26.0, 30.0, -14.0, -20.0, -28.0, -52.0, -42.0, 6.0, -25.0, -90.0, 29.0, -18.0, -39.0, -1.0, -23.0, -21.0, -17.0, 9.0, -43.0, 47.0, 0.0, -69.0, -15.0, -127.0, -47.0, 10.0, -9.0, 10.0, -49.0, -8.0, -28.0, 3.0, -78.0, 1.0, 3.0, -13.0, 8.0, -24.0, -14.0, -3.0, -15.0, -39.0, 37.0, 6.0, 36.0, 42.0, 17.0, 15.0, -9.0, 36.0, -28.0, -46.0, -52.0, -39.0, -46.0, -2.0, -11.0, -65.0, -44.0, -26.0, -74.0, -3.0, -98.0, -18.0, -29.0, 2.0, -36.0, -46.0, -22.0, -47.0, -62.0, -102.0, 9.0, -14.0, -43.0, -17.0, 12.0, -55.0, -8.0, -18.0, -39.0, -3.0, 8.0, 18.0, 6.0, -44.0, -39.0, -48.0, -8.0, -19.0, -21.0, -49.0, -10.0, 12.0, -3.0, -45.0, -10.0, 27.0, 32.0, -1.0, 49.0, -18.0, -8.0, -8.0, -79.0, 5.0, -43.0, -14.0, 7.0, -68.0, 15.0, 81.0, -24.0, 46.0, 91.0, 80.0, 19.0, 58.0, 19.0, 39.0, 82.0, 64.0, 37.0, 16.0, 2.0, -9.0, 84.0, 32.0, 63.0, 22.0, 32.0, -18.0, -31.0, 45.0, 6.0, 43.0, -47.0, -12.0, -25.0, 27.0, 18.0, 30.0, 55.0, -27.0, -15.0, 62.0, -50.0, -42.0, -33.0, -28.0, -21.0, 15.0, -14.0, -48.0, -73.0, -10.0, -32.0, 5.0, -31.0, 79.0, -48.0, -16.0, 75.0, 15.0, 55.0, 34.0, 104.0, 58.0, 32.0, 42.0, -7.0, 20.0, 10.0, 66.0, 37.0, 71.0, 19.0, 28.0, 17.0, 25.0, -58.0, 16.0, 24.0, 53.0, 37.0, 13.0, -5.0, 13.0, 4.0, 35.0, -8.0, -57.0, 39.0, 43.0, -82.0, -83.0, -33.0, -6.0, -65.0, -1.0, -127.0, -100.0, -10.0, -58.0, -10.0, -52.0, -22.0, -39.0, -109.0, -46.0, 18.0, 9.0, -2.0, -13.0, 43.0, 70.0, -60.0, 20.0, 5.0, 25.0, 5.0, 56.0, -17.0, 31.0, -25.0, 56.0, 48.0, 14.0, -43.0, 15.0, 5.0, 62.0, 41.0, 44.0, 54.0, 38.0, 12.0, -5.0, 28.0, 4.0, 36.0, 47.0, -7.0, -56.0, -76.0, 0.0, -3.0, -87.0, -19.0, -50.0, -16.0, 23.0, -105.0, -1.0, 44.0, -20.0, -35.0, -8.0, -20.0, -28.0, -9.0, -26.0, -60.0, -16.0, -12.0, 5.0, -5.0, 33.0, -14.0, 76.0, 34.0, -53.0, -19.0, -14.0, -20.0, 3.0, -8.0, -64.0, 29.0, -80.0, 1.0, -63.0, -26.0, -10.0, -79.0, 37.0, -80.0, -47.0, -58.0, -12.0, -2.0, 13.0, -65.0, -85.0, 32.0, -74.0, -71.0, -39.0, -47.0, 8.0, -127.0, 24.0, 17.0, -25.0, -76.0, 2.0, 3.0, 64.0, -46.0, 13.0, -26.0, 17.0, -85.0, -15.0, -93.0, -1.0, -49.0, 35.0, -26.0, 51.0, -83.0, 45.0, 16.0, 56.0, -51.0, -45.0, -3.0, -9.0, -83.0, -77.0, -41.0, 60.0, -6.0, -11.0, 26.0, 18.0, -61.0, -19.0, 32.0, 5.0, -32.0, -26.0, 9.0, 14.0, -119.0, -13.0, -44.0, 49.0, -18.0, -18.0, 18.0, 17.0, -6.0, 7.0, 63.0, 53.0, -50.0, -53.0, 45.0, 41.0, -42.0, 0.0, -25.0, -2.0, -36.0, 59.0, 1.0, -9.0, -65.0, 68.0, 29.0, 29.0, 10.0, -17.0, 51.0, 17.0, -54.0, -8.0, -37.0, 1.0, 31.0, 20.0, 33.0, 11.0, -13.0, -9.0, -39.0, -10.0, 64.0, -2.0, 16.0, 40.0, -27.0, 6.0, 9.0, -16.0, -1.0, -36.0, 10.0, -1.0, -18.0, 7.0, 62.0, -18.0, 52.0, 92.0, 28.0, 61.0, 87.0, 42.0, 78.0, 51.0, 59.0, 12.0, 101.0, 8.0, 63.0, 69.0, -9.0, 19.0, -20.0, 114.0, -37.0, 21.0, 49.0, 33.0, 50.0, 74.0, 47.0, 54.0, -35.0, -23.0, 62.0, -1.0, -28.0, -19.0, 32.0, 40.0, -1.0, 77.0, -23.0, 2.0, 34.0, -82.0, 39.0, -17.0, -72.0, -57.0, -5.0, -11.0, 9.0, -48.0, 93.0, 92.0, 34.0, 80.0, 93.0, 77.0, 63.0, -27.0, 58.0, 9.0, -54.0, -10.0, 81.0, 15.0, 42.0, 4.0, -94.0, 80.0, -34.0, 34.0, 5.0, 32.0, 68.0, -38.0, -21.0, 0.0, -44.0, -16.0, 127.0, 24.0, -17.0, -4.0, -12.0, -65.0, 1.0, 32.0, -21.0, -61.0, 3.0, -45.0, 2.0, -2.0, -24.0, -89.0, -14.0, 9.0, 57.0, -60.0, 73.0, 28.0, -1.0, 79.0, 36.0, 65.0, 31.0, 7.0, -14.0, 46.0, 10.0, -25.0, 52.0, 55.0, 38.0, 20.0, -22.0, 51.0, 29.0, 4.0, -1.0, 38.0, 9.0, -23.0, 24.0, 9.0, -45.0, 15.0, 64.0, 36.0, 73.0, 53.0, -5.0, 1.0, 77.0, 96.0, -28.0, 46.0, 26.0, 6.0, 7.0, -4.0, 21.0, -11.0, -13.0, 31.0, 24.0, -2.0, -2.0, 40.0, 69.0, 28.0, 46.0, 69.0, -9.0, 1.0, 59.0, -42.0, 37.0, 15.0, 33.0, -10.0, 78.0, 3.0, -18.0, 38.0, -33.0, -25.0, 50.0, 3.0, -25.0, -18.0, 24.0, 37.0, -39.0, 23.0, 30.0, -11.0, 86.0, 72.0, 22.0, -49.0, 127.0, 39.0, 9.0, 15.0, -35.0, 15.0, 14.0, 24.0, 25.0, 95.0, 9.0, 103.0, 19.0, 19.0, -4.0, 46.0, 74.0, -20.0, 37.0, 79.0, -37.0, 37.0, 9.0, 62.0, 64.0, 34.0, -5.0, 5.0, 20.0, -32.0, 9.0, 43.0, 11.0, -55.0, -26.0, 19.0, -4.0, -25.0, 14.0, 39.0, -51.0, 11.0, -33.0, 20.0, 57.0, 64.0, 10.0, 9.0, 100.0, 2.0, 7.0, 60.0, 8.0, 92.0, -1.0, 2.0, 49.0, 49.0, 10.0, 89.0, 56.0, 80.0, -17.0, -32.0, 23.0, -16.0, -29.0, 68.0, 1.0, 44.0, 11.0, -19.0, 43.0, -6.0, -29.0, 104.0, 43.0, 3.0, 14.0, 5.0, 6.0, -43.0, -23.0, 11.0, 18.0, 56.0, 79.0, 31.0, 50.0, 22.0, 49.0, 59.0, 55.0, -32.0, -44.0, 25.0, -10.0, 32.0, -115.0, -33.0, -28.0, -41.0, -76.0, 10.0, 10.0, -54.0, -27.0, 31.0, -40.0, -7.0, -21.0, 6.0, -103.0, -18.0, 35.0, 60.0, -8.0, -5.0, 50.0, 27.0, 5.0, 79.0, 8.0, -17.0, 8.0, -11.0, -48.0, -74.0, -79.0, 23.0, -97.0, 59.0, -58.0, -100.0, -126.0, 8.0, -73.0, -119.0, -126.0, -53.0, 17.0, -24.0, -31.0, 13.0, -69.0, 37.0, 37.0, -79.0, 75.0, -66.0, -53.0, -49.0, -37.0, -62.0, -57.0, -5.0, 15.0, 27.0, 38.0, -12.0, -19.0, -29.0, -26.0, 36.0, 9.0, -42.0, 110.0, -17.0, 29.0, 76.0, 34.0, 48.0, 69.0, 10.0, -103.0, -73.0, -125.0, -20.0, 1.0, -68.0, 24.0, -15.0, -21.0, -126.0, -118.0, -93.0, -44.0, -37.0, -4.0, -122.0, -88.0, -27.0, 13.0, -23.0, -2.0, -73.0, 32.0, -32.0, -78.0, 39.0, 25.0, -101.0, 56.0, 56.0, -42.0, -88.0, -22.0, 50.0, -64.0, 64.0, -3.0, 28.0, 20.0, -76.0, 62.0, 41.0, -30.0, 91.0, -6.0, -32.0, 40.0, -16.0, 0.0, -6.0, 19.0, 12.0, 24.0, -42.0, 2.0, -82.0, 14.0, -12.0, -127.0, -56.0, 48.0, 44.0, 70.0, -13.0, 16.0, 13.0, -33.0, 22.0, 2.0, 47.0, -12.0, 50.0, 40.0, 34.0, -4.0, 42.0, 15.0, 47.0, 106.0, 3.0, 69.0, 34.0, 29.0, 63.0, 1.0, -28.0, 11.0, 42.0, 66.0, 30.0, 4.0, 38.0, 56.0, 43.0, 98.0, 39.0, 81.0, 69.0, -6.0, 20.0, -13.0, 64.0, 60.0, 59.0, 46.0, 107.0, 88.0, 69.0, 120.0, 3.0, -41.0, 25.0, 36.0, 83.0, -32.0, 39.0, 15.0, -2.0, 36.0, 42.0, -13.0, -34.0, -24.0, 29.0, 52.0, -33.0, 77.0, 36.0, -13.0, -15.0, 36.0, 88.0, 44.0, 37.0, 105.0, 55.0, -15.0, 26.0, 77.0, 6.0, 114.0, 67.0, 59.0, -21.0, 92.0, 126.0, 127.0, 13.0, 14.0, 51.0, 110.0, 47.0, 57.0, 94.0, 33.0, -18.0, 40.0, 42.0, -19.0, -6.0, -57.0, 15.0, -69.0, -17.0, 35.0, -20.0, 18.0, 45.0, -9.0, 39.0, -20.0, -29.0, -4.0, -17.0, 6.0, -38.0, 63.0, 42.0, -11.0, 31.0, 6.0, 54.0, -15.0, 44.0, -21.0, 28.0, 1.0, 51.0, 6.0, 5.0, 70.0, 29.0, 52.0, 68.0, 10.0, -3.0, -32.0, 19.0, 99.0, 77.0, 41.0, 33.0, 63.0, 34.0, 9.0, 30.0, -21.0, 26.0, -23.0, -48.0, 67.0, -31.0, -51.0, -36.0, -13.0, 23.0, 12.0, -9.0, 45.0, 35.0, -22.0, 12.0, -36.0, 3.0, -62.0, -9.0, -11.0, -65.0, -28.0, -13.0, -34.0, 74.0, -87.0, 6.0, 68.0, -105.0, 27.0, -1.0, 10.0, -61.0, -87.0, -31.0, -34.0, -27.0, -56.0, -69.0, -87.0, -6.0, -7.0, 54.0, 1.0, 19.0, 15.0, 7.0, -13.0, 28.0, 79.0, -127.0, -15.0, -24.0, -55.0, -15.0, -26.0, 26.0, 45.0, 72.0, -52.0, -4.0, -36.0, -23.0, -16.0, 39.0, -17.0, 6.0, -22.0, -88.0, 7.0, -42.0, -84.0, 34.0, -5.0, -114.0, 66.0, -79.0, -2.0, 10.0, 52.0, 37.0, -79.0, 27.0, -15.0, -65.0, -90.0, -30.0, -20.0, 22.0, -11.0, 42.0, -41.0, -58.0, -74.0, 27.0, -7.0, 58.0, 54.0, -94.0, 38.0, -13.0, -61.0, 26.0, -31.0, 35.0, 11.0, -39.0, 21.0, 89.0, -25.0, 28.0, 61.0, 45.0, -29.0, -21.0, -61.0, -3.0, -56.0, -60.0, -68.0, 15.0, -7.0, -27.0, 44.0, -41.0, -77.0, 22.0, -61.0, -26.0, -73.0, -74.0, 20.0, -112.0, -85.0, -64.0, -34.0, 20.0, -70.0, 55.0, 15.0, -20.0, -82.0, 40.0, 16.0, -49.0, -50.0, -10.0, -68.0, -1.0, 21.0, 39.0, 24.0, 3.0, 20.0, -41.0, -66.0, 3.0, 4.0, -52.0, -23.0, -4.0, 34.0, 8.0, -3.0, 31.0, 43.0, 21.0, 22.0, -60.0, 17.0, -33.0, 2.0, -1.0, -9.0, -54.0, 1.0, -5.0, 25.0, -17.0, -2.0, 8.0, 10.0, 39.0, -10.0, -30.0, 11.0, -41.0, -24.0, 21.0, 11.0, -6.0, -26.0, -58.0, -112.0, 17.0, -28.0, -40.0, 14.0, 3.0, 6.0, -28.0, -24.0, -91.0, -77.0, -40.0, -94.0, -67.0, -7.0, -44.0, 27.0, -24.0, 8.0, 13.0, 56.0, 1.0, -4.0, -67.0, 17.0, -42.0, 19.0, 22.0, -1.0, -32.0, -5.0, 20.0, 20.0, -41.0, 19.0, 11.0, 20.0, 34.0, -15.0, -14.0, 1.0, -5.0, -5.0, 12.0, 11.0, 13.0, -75.0, 2.0, -30.0, -52.0, -85.0, -70.0, -9.0, 26.0, -63.0, -16.0, -46.0, -115.0, -127.0, -28.0, -78.0, -41.0, -23.0, -25.0, 47.0, -58.0, 42.0, -15.0, 17.0, -3.0, -23.0, -60.0, 18.0, -78.0, 23.0, 51.0, -25.0, -12.0, -35.0, -9.0, 23.0, -16.0, -10.0, 15.0, 23.0, 17.0, -41.0, 4.0, 0.0, -19.0, 3.0, -16.0, -12.0, -33.0, 0.0, -47.0, 49.0, 9.0, -23.0, 53.0, 15.0, 3.0, 30.0, -25.0, 41.0, 4.0, -46.0, -14.0, -19.0, -4.0, 1.0, 33.0, -29.0, 73.0, -102.0, 49.0, 66.0, -61.0, 42.0, -50.0, 10.0, 1.0, -18.0, -71.0, 69.0, -14.0, 6.0, 11.0, -58.0, 28.0, -58.0, -15.0, -45.0, -89.0, 47.0, -41.0, 34.0, 47.0, -19.0, -88.0, 77.0, 86.0, 7.0, -89.0, -31.0, 15.0, -35.0, 11.0, -11.0, 10.0, 18.0, -16.0, -86.0, 29.0, -33.0, -84.0, 21.0, 7.0, -4.0, -52.0, -79.0, 66.0, -120.0, 26.0, 40.0, -20.0, 35.0, 1.0, -26.0, 21.0, -25.0, -127.0, 1.0, -50.0, 14.0, -14.0, -50.0, 59.0, -19.0, -73.0, 12.0, -82.0, 56.0, -63.0, 11.0, 54.0, 2.0, -34.0, 67.0, 87.0, 24.0, -33.0, -80.0, -38.0, -21.0, -26.0, -53.0, -37.0, -75.0, 4.0, -88.0, 22.0, -32.0, -37.0, -62.0, -6.0, 22.0, 32.0, -101.0, 5.0, -40.0, -28.0, 20.0, -36.0, 0.0, 14.0, -65.0, -2.0, -3.0, -68.0, -44.0, 54.0, 34.0, 31.0, -20.0, 38.0, 25.0, -73.0, -14.0, -32.0, 13.0, 13.0, -30.0, 59.0, 26.0, -28.0, -6.0, 44.0, 2.0, 36.0, 39.0, 80.0, 5.0, 53.0, 56.0, 58.0, 51.0, 127.0, 59.0, 90.0, 92.0, 39.0, 101.0, 84.0, 72.0, 0.0, -39.0, 29.0, 40.0, 28.0, 51.0, 80.0, -5.0, -36.0, -20.0, 23.0, 4.0, 31.0, 28.0, 55.0, 16.0, 16.0, -23.0, 19.0, -19.0, 70.0, 19.0, -7.0, -31.0, 64.0, 38.0, 2.0, 60.0, 8.0, -29.0, 80.0, 53.0, -3.0, 55.0, 95.0, -21.0, 29.0, 7.0, 19.0, 40.0, 68.0, 106.0, 70.0, 67.0, 11.0, 109.0, 45.0, 36.0, -19.0, -35.0, 65.0, 21.0, 56.0, 29.0, 23.0, -20.0, 33.0, 35.0, 33.0, 43.0, 27.0, 46.0, 63.0, 75.0, 62.0, -7.0, -6.0, 33.0, -14.0, 31.0, 13.0, 18.0, 41.0, 37.0, 39.0, 22.0, 34.0, -15.0, 76.0, 51.0, 23.0, 121.0, 28.0, 29.0, 59.0, 1.0, 14.0, 30.0, 14.0, 57.0, 47.0, 62.0, -4.0, 73.0, 12.0, 41.0, 7.0, 58.0, 52.0, 48.0, 69.0, 26.0, 10.0, 31.0, 62.0, 5.0, 63.0, 7.0, 42.0, 47.0, -10.0, 2.0, 2.0, -14.0, -3.0, -3.0, 47.0, 50.0, 4.0, -14.0, 23.0, 23.0, 73.0, 32.0, 41.0, -12.0, 20.0, -6.0, 4.0, -33.0, -19.0, -24.0, 12.0, 36.0, 16.0, 6.0, -40.0, -17.0, -81.0, -34.0, -72.0, -4.0, 22.0, -10.0, -16.0, 1.0, -20.0, -42.0, -10.0, -11.0, -32.0, 15.0, 6.0, 11.0, -28.0, 12.0, 15.0, 25.0, -3.0, -58.0, -15.0, -48.0, 39.0, -7.0, -5.0, 44.0, -26.0, 26.0, -68.0, 20.0, -51.0, -58.0, -8.0, 37.0, -11.0, 1.0, -58.0, -95.0, -41.0, -5.0, 11.0, 22.0, -9.0, 7.0, 7.0, -29.0, -127.0, -34.0, -40.0, 34.0, 6.0, -31.0, -4.0, 20.0, 46.0, -13.0, 0.0, 13.0, 11.0, -3.0, -48.0, 8.0, -35.0, 22.0, 18.0, -16.0, -8.0, 9.0, -14.0, -44.0, 28.0, -22.0, 15.0, 18.0, -32.0, -2.0, -12.0, 32.0, -63.0, -53.0, -20.0, 3.0, -33.0, -54.0, -57.0, -81.0, 6.0, -45.0, -29.0, 30.0, -42.0, 7.0, 16.0, -66.0, -14.0, -12.0, -29.0, -54.0, -46.0, 21.0, -33.0, 34.0, 32.0, -2.0, 41.0, -9.0, -27.0, -15.0, -42.0, 44.0, 16.0, 26.0, 24.0, -17.0, 18.0, -35.0, 36.0, 3.0, 36.0, 47.0, 31.0, 17.0, 16.0, -9.0, -23.0, 3.0, -24.0, -34.0, -37.0, 11.0, -18.0, -56.0, -30.0, 12.0, -11.0, -5.0, 10.0, 29.0, 61.0, 17.0, -64.0, -40.0, 7.0, -37.0, -6.0, 25.0, 11.0, 66.0, -18.0, -47.0, -93.0, -55.0, -45.0, -5.0, 32.0, -87.0, -20.0, 47.0, 48.0, 6.0, -14.0, -35.0, -57.0, -121.0, -74.0, -110.0, -60.0, -103.0, -50.0, -77.0, -103.0, -115.0, -8.0, -7.0, -12.0, 12.0, -84.0, -39.0, 33.0, -7.0, 17.0, 41.0, -7.0, 90.0, 50.0, -2.0, 50.0, 58.0, -34.0, 49.0, 37.0, 3.0, 8.0, -43.0, -5.0, -42.0, -5.0, 51.0, 9.0, 36.0, 49.0, 57.0, 24.0, -49.0, 16.0, -30.0, -14.0, -21.0, -60.0, 18.0, -25.0, -17.0, -40.0, -91.0, 15.0, -39.0, -82.0, -49.0, -17.0, 2.0, -29.0, 20.0, 23.0, -66.0, -2.0, -127.0, -14.0, 51.0, -45.0, 50.0, -8.0, 24.0, 18.0, 21.0, 62.0, 31.0, -31.0, 22.0, 59.0, 41.0, 24.0, 15.0, 22.0, -6.0, 12.0, 25.0, -78.0, -32.0, -50.0, 16.0, -25.0, 12.0, 43.0, -27.0, -68.0, 5.0, -55.0, -15.0, -5.0, -48.0, -30.0, -9.0, -115.0, 5.0, 12.0, 20.0, -25.0, -95.0, -102.0, -71.0, -40.0, 9.0, -82.0, 4.0, -39.0, 12.0, 12.0, 4.0, 33.0, -10.0, 32.0, 37.0, -7.0, 49.0, -16.0, 9.0, 8.0, -18.0, -18.0, -11.0, 10.0, 7.0, -5.0, 4.0, -76.0, -58.0, 21.0, -35.0, -45.0, 41.0, -57.0, -23.0, -16.0, 23.0, -27.0, -19.0, -22.0, -88.0, 0.0, -38.0, -86.0, -76.0, -78.0, -58.0, -8.0, -42.0, -23.0, -116.0, -15.0, -66.0, -127.0, -110.0, -108.0, -22.0, -10.0, 20.0, 51.0, -31.0, -19.0, 33.0, 24.0, 31.0, 34.0, -15.0, 20.0, 12.0, 24.0, 35.0, -2.0, -13.0, 4.0, -11.0, -91.0, 35.0, 30.0, 17.0, 30.0, -25.0, 2.0, 52.0, 77.0, -61.0, -16.0, 12.0, -34.0, -31.0, -99.0, -65.0, 1.0, -49.0, -41.0, -13.0, -18.0, -106.0, -29.0, -20.0, -52.0, 15.0, -107.0, -59.0, -76.0, -6.0, 1.0, 38.0, 21.0, 62.0, -23.0, 30.0, 1.0, 35.0, 8.0, 46.0, 36.0, -39.0, -25.0, 22.0, 43.0, 48.0, 33.0, 3.0, 6.0, -11.0, -34.0, -1.0, 4.0, 1.0, 12.0, 48.0, 22.0, 53.0, -29.0, 47.0, -1.0, -13.0, 6.0, -12.0, -10.0, 9.0, -71.0, -43.0, -40.0, 12.0, -97.0, -24.0, 9.0, -52.0, -79.0, 41.0, -13.0, 37.0, 6.0, -35.0, 29.0, -12.0, 14.0, -12.0, 11.0, -31.0, -43.0, -59.0, 30.0, -11.0, 14.0, 15.0, -4.0, -11.0, 61.0, -80.0, 29.0, 41.0, 74.0, -17.0, -2.0, -1.0, 11.0, -33.0, 47.0, 41.0, -15.0, -3.0, 40.0, 40.0, -61.0, -72.0, 40.0, -13.0, 19.0, -32.0, 49.0, 20.0, -44.0, -70.0, -22.0, -48.0, -47.0, -49.0, 42.0, -21.0, -2.0, -42.0, -22.0, -27.0, -27.0, -19.0, -3.0, -71.0, 2.0, -82.0, 49.0, -4.0, -63.0, -23.0, 25.0, 30.0, -22.0, -75.0, -20.0, -42.0, 4.0, -127.0, -97.0, 8.0, 23.0, -104.0, 74.0, 2.0, -61.0, -31.0, 80.0, 37.0, -43.0, -26.0, -15.0, 8.0, 37.0, -64.0, -22.0, -65.0, 34.0, -99.0, 40.0, 26.0, -34.0, -25.0, 33.0, -30.0, -2.0, -7.0, -43.0, -72.0, 48.0, -47.0, -68.0, -21.0, 20.0, -12.0, 29.0, 40.0, -51.0, -15.0, -3.0, 26.0, -13.0, -9.0, -22.0, 6.0, 3.0, -96.0, -82.0, -4.0, -24.0, -55.0, 35.0, -5.0, 17.0, 29.0, -14.0, -6.0, -1.0, 6.0, -32.0, 36.0, -10.0, -60.0, -15.0, -21.0, 18.0, -12.0, 15.0, 11.0, 38.0, -10.0, -16.0, 34.0, 30.0, -74.0, 0.0, -81.0, -58.0, 73.0, -38.0, -73.0, -75.0, -66.0, -33.0, -15.0, -65.0, -94.0, 27.0, 3.0, -24.0, -77.0, 23.0, -64.0, 36.0, -27.0, -31.0, 10.0, 29.0, -50.0, 0.0, -29.0, 17.0, 19.0, -21.0, 110.0, 32.0, 43.0, 42.0, -12.0, 87.0, 21.0, 18.0, 66.0, 63.0, 30.0, 66.0, 100.0, 81.0, 52.0, 48.0, -51.0, 7.0, -36.0, 5.0, -127.0, -43.0, 36.0, -76.0, -40.0, -65.0, -86.0, -50.0, -58.0, -88.0, 11.0, -25.0, -15.0, 19.0, -96.0, -7.0, -10.0, -4.0, 13.0, -44.0, 63.0, 14.0, -64.0, 14.0, -32.0, -16.0, 36.0, -24.0, 71.0, -30.0, 97.0, 0.0, 61.0, 42.0, -12.0, -32.0, 84.0, 17.0, 7.0, 47.0, 52.0, 79.0, -43.0, 38.0, -6.0, -29.0, -51.0, 4.0, -110.0, -88.0, -78.0, -106.0, -108.0, -69.0, -55.0, -41.0, -24.0, -38.0, -73.0, -33.0, 18.0, -65.0, -53.0, -58.0, -58.0, -67.0, -33.0, -17.0, 25.0, -15.0, -56.0, -40.0, -47.0, -2.0, 16.0, -47.0, 5.0, 31.0, -9.0, -23.0, 5.0, 35.0, 9.0, 29.0, 70.0, 0.0, 13.0, 35.0, -21.0, 48.0, 13.0, 34.0, 14.0, -80.0, -94.0, -74.0, -50.0, -17.0, -26.0, -106.0, 65.0, -14.0, 25.0, -83.0, -97.0, -127.0, -44.0, -64.0, -72.0, -24.0, 50.0, -70.0, -33.0, -57.0, -38.0, -45.0, 53.0, -91.0, -48.0, -61.0, -35.0, 16.0, 4.0, -56.0, 35.0, -17.0, -1.0, 16.0, 23.0, 15.0, 0.0, 51.0, -4.0, -31.0, -15.0, 24.0, -14.0, -23.0, 36.0, 0.0, -19.0, -6.0, -100.0, -19.0, -3.0, -3.0, 15.0, -121.0, -7.0, -90.0, -42.0, -72.0, 2.0, -45.0, -48.0, 1.0, -67.0, 10.0, -10.0, -7.0, -78.0, -20.0, 62.0, -18.0, 12.0, -89.0, 27.0, -13.0, -53.0, 2.0, -32.0, -90.0, -9.0, -7.0, 0.0, 11.0, -14.0, 32.0, 19.0, -11.0, 29.0, -80.0, -6.0, 16.0, 31.0, 23.0, 0.0, 16.0, 31.0, 48.0, 27.0, 1.0, 9.0, 21.0, 11.0, 23.0, 24.0, 59.0, -24.0, 29.0, 11.0, -36.0, 34.0, 23.0, -66.0, -32.0, -37.0, -24.0, -11.0, -68.0, -10.0, 41.0, 0.0, -20.0, 28.0, -30.0, 24.0, 43.0, 48.0, -41.0, 4.0, 11.0, -1.0, -5.0, -39.0, -17.0, -8.0, -7.0, -35.0, -33.0, -28.0, -20.0, -51.0, 6.0, -24.0, 17.0, 32.0, 38.0, -2.0, 3.0, 54.0, -38.0, -51.0, -3.0, 2.0, 7.0, -33.0, 11.0, 4.0, 21.0, 10.0, 17.0, 37.0, 61.0, -38.0, -14.0, 68.0, -27.0, -5.0, -21.0, 30.0, 59.0, -93.0, 34.0, 34.0, 9.0, 4.0, 56.0, 7.0, 19.0, -94.0, 2.0, -23.0, -26.0, -91.0, 31.0, -73.0, 51.0, -113.0, 15.0, -5.0, -42.0, 22.0, 12.0, 20.0, 25.0, -51.0, -89.0, -30.0, -19.0, -70.0, -5.0, 29.0, 38.0, -16.0, 51.0, 30.0, 24.0, -23.0, 28.0, 4.0, 30.0, -13.0, -34.0, 26.0, -23.0, -86.0, -3.0, -48.0, 60.0, -49.0, 47.0, -14.0, -21.0, -4.0, -21.0, -10.0, -3.0, -91.0, -21.0, 30.0, 13.0, -71.0, -1.0, -71.0, 47.0, -127.0, -4.0, 0.0, -11.0, -41.0, -18.0, 12.0, 55.0, -28.0, -97.0, -8.0, -58.0, -34.0, -37.0, -52.0, -12.0, -88.0, 0.0, -53.0, -5.0, -23.0, -8.0, 16.0, 77.0, -14.0, -51.0, -9.0, -62.0, -78.0, 7.0, 1.0, 44.0, -99.0, -19.0, -3.0, -14.0, -14.0, 29.0, -3.0, 59.0, -56.0, -28.0, 1.0, -45.0, -50.0, -2.0, -46.0, 70.0, -51.0, 14.0, 12.0, 0.0, -63.0, -13.0, 39.0, 72.0, 44.0, 59.0, -7.0, 34.0, 33.0, 69.0, 86.0, 48.0, 38.0, 13.0, 28.0, 31.0, 10.0, -1.0, 5.0, 26.0, 31.0, -1.0, -7.0, 74.0, 41.0, -23.0, 43.0, 19.0, 35.0, 49.0, 82.0, -6.0, 75.0, -5.0, -19.0, 17.0, -18.0, 50.0, 10.0, 2.0, 4.0, 6.0, 65.0, 59.0, 23.0, 15.0, 29.0, 13.0, 81.0, -24.0, 22.0, -19.0, -20.0, 4.0, -7.0, 26.0, -4.0, -64.0, 65.0, 31.0, -50.0, 25.0, 30.0, 10.0, 43.0, 7.0, 46.0, 41.0, 80.0, 38.0, 20.0, 51.0, 63.0, -12.0, 38.0, 55.0, 2.0, 30.0, 63.0, -8.0, 75.0, 11.0, 36.0, 32.0, -13.0, 74.0, 6.0, 61.0, 40.0, -18.0, 90.0, -7.0, 59.0, -3.0, 59.0, 22.0, 67.0, 1.0, -24.0, 9.0, -49.0, -60.0, -65.0, -93.0, -1.0, -85.0, -89.0, -9.0, -127.0, -57.0, 11.0, -18.0, -20.0, -41.0, -10.0, -45.0, -10.0, -24.0, 5.0, 25.0, -48.0, -39.0, 1.0, 25.0, -51.0, 36.0, 9.0, -36.0, 21.0, -8.0, 38.0, -12.0, 28.0, 41.0, 4.0, 4.0, 20.0, -9.0, 65.0, -25.0, -18.0, 2.0, 31.0, 28.0, -6.0, -17.0, 11.0, -43.0, 66.0, 10.0, 49.0, 50.0, 26.0, 73.0, 59.0, 66.0, 39.0, 45.0, 56.0, 83.0, -35.0, 11.0, 124.0, 77.0, 43.0, -39.0, 125.0, 42.0, -7.0, 62.0, -13.0, 116.0, 4.0, 59.0, 31.0, 37.0, -22.0, 87.0, 58.0, 60.0, -40.0, -1.0, 59.0, 12.0, -14.0, 8.0, 21.0, 59.0, -8.0, 36.0, 72.0, 4.0, 72.0, 94.0, 60.0, -75.0, 102.0, -26.0, 31.0, -38.0, -28.0, -4.0, -20.0, 31.0, 45.0, 2.0, -16.0, 103.0, 5.0, 22.0, 12.0, 119.0, 67.0, -58.0, 51.0, 60.0, 9.0, 29.0, -34.0, 127.0, -21.0, -6.0, 87.0, 22.0, -16.0, 7.0, 66.0, 35.0, 16.0, 56.0, 72.0, 51.0, 12.0, -1.0, 17.0, 108.0, 7.0, 9.0, 46.0, 74.0, 22.0, 95.0, 26.0, 30.0, 65.0, -70.0, 50.0, -33.0, 12.0, 19.0, 2.0, -6.0, 44.0, -16.0, -7.0, 45.0, -28.0, 46.0, 36.0, 92.0, 75.0, -9.0, 33.0, 1.0, 33.0, 54.0, -33.0, 28.0, -58.0, -35.0, 55.0, -36.0, -10.0, 44.0, 57.0, 55.0, 8.0, 37.0, 19.0, 47.0, 50.0, 31.0, 18.0, 60.0, 18.0, 92.0, -22.0, 22.0, 2.0, 73.0, };
static const unsigned char* v1_weight=weight1;
static const int32_t bias1[32] = {1861, 2046, 2023, 2665, 3486, 1500, -1908, 1385, 2816, -4686, 2284, -2413, 2628, -947, 2887, -2055, -2242, 2844, -4055, 3374, 2482, 2836, -3715, 1601, 2868, 2457, 2461, 2146, 2830, 2716, -1320, -3145, };
static const float bias_fp1[32] = {1861.0, 2046.0, 2023.0, 2665.0, 3486.0, 1500.0, -1908.0, 1385.0, 2816.0, -4686.0, 2284.0, -2413.0, 2628.0, -947.0, 2887.0, -2055.0, -2242.0, 2844.0, -4055.0, 3374.0, 2482.0, 2836.0, -3715.0, 1601.0, 2868.0, 2457.0, 2461.0, 2146.0, 2830.0, 2716.0, -1320.0, -3145.0, };
static const int32_t* v1_bias=bias1;
static const float scales1[32] = {0.0062784604, 0.0061365273, 0.004623009, 0.0043241745, 0.003638639, 0.004605609, 0.0028570397, 0.0052579734, 0.0041817683, 0.0020265165, 0.0049356064, 0.0016076246, 0.0052202484, 0.0036241808, 0.004756272, 0.0030222223, 0.0025799864, 0.0043923943, 0.0017595221, 0.0035497602, 0.0054025277, 0.0059186853, 0.0017789924, 0.0068887593, 0.0033720243, 0.0033993928, 0.0052300715, 0.003014798, 0.004330432, 0.0052401056, 0.0031192699, 0.0020436787, };
static const int32_t shift1[32] = {-7, -7, -7, -7, -8, -7, -8, -7, -7, -8, -7, -9, -7, -8, -7, -8, -8, -7, -9, -8, -7, -7, -9, -7, -8, -8, -7, -8, -7, -7, -8, -8, };
static const int32_t multiplier1[32] = {1725810048, 1686795776, 1270763008, 1188620032, 2000363008, 1265980160, 1570674176, 1445300736, 1149475712, 1114089216, 1356689152, 1767601920, 1434930944, 1992414464, 1307394048, 1661484288, 1418362496, 1207372160, 1934615040, 1951501312, 1485035520, 1626915840, 1956022784, 1893567744, 1853789952, 1868835968, 1437631104, 1657402752, 1190340096, 1440389248, 1714836736, 1123524224, };
static const unsigned char weight2[18432] = {0x33, 0x2c, 0x07, 0x1f, 0x3a, 0xba, 0xda, 0xf5, 0xe3, 0x3b, 0x1e, 0x22, 0x15, 0xef, 0xb9, 0x49, 0xcd, 0x4f, 0xd2, 0xeb, 0xd9, 0xd3, 0xd5, 0xf5, 0xe4, 0x19, 0xcf, 0xd4, 0x10, 0x18, 0xf5, 0xd4, 0xce, 0x37, 0xeb, 0x3b, 0x6b, 0x22, 0xdb, 0xad, 0xf5, 0x2c, 0x7f, 0xd6, 0x35, 0xe4, 0xed, 0x14, 0x17, 0x6d, 0xda, 0x11, 0xbf, 0xbe, 0x36, 0xf5, 0xe0, 0xfd, 0x03, 0x13, 0x4c, 0xf1, 0x12, 0xd8, 0x0f, 0xf0, 0x12, 0xef, 0xf8, 0x42, 0x11, 0x29, 0x27, 0x1e, 0xd9, 0xdf, 0xb4, 0xeb, 0x32, 0xd6, 0x0b, 0x9f, 0xe5, 0x06, 0x04, 0x22, 0x3a, 0xca, 0xc9, 0xdc, 0x2d, 0xf5, 0xc4, 0x3f, 0xf2, 0x35, 0x08, 0x12, 0x1b, 0xe6, 0x12, 0x82, 0xce, 0xc0, 0xbe, 0xf1, 0x09, 0xde, 0x3b, 0x04, 0xc3, 0x34, 0xf3, 0x3c, 0xe5, 0xc2, 0x3a, 0xd4, 0x2e, 0xc3, 0x0f, 0xf5, 0xbd, 0xf8, 0x37, 0x02, 0x0f, 0x02, 0xb5, 0x2d, 0xdb, 0xde, 0x04, 0xd0, 0x0f, 0xaa, 0xdd, 0xd8, 0xd0, 0xef, 0xfd, 0xed, 0xc2, 0xe3, 0x0a, 0xcf, 0xf3, 0x07, 0x8f, 0xdc, 0x1d, 0xba, 0xff, 0xf0, 0x24, 0xd9, 0xe7, 0x4d, 0x21, 0x21, 0xd4, 0xcf, 0x18, 0xe5, 0xd0, 0x52, 0xe9, 0x3b, 0x27, 0xdd, 0xef, 0x03, 0x9f, 0xf0, 0x56, 0xef, 0xce, 0xd8, 0x2a, 0x3e, 0xaa, 0xc4, 0x24, 0xeb, 0xfa, 0x22, 0xfd, 0xee, 0xb1, 0x21, 0x21, 0x19, 0xfb, 0x66, 0x38, 0x3e, 0x11, 0xc3, 0x41, 0xec, 0xc2, 0xf0, 0x1c, 0xff, 0x53, 0x23, 0x0a, 0xfb, 0x38, 0xfb, 0xdf, 0xff, 0xec, 0xc5, 0xed, 0xc6, 0x1a, 0x28, 0x2f, 0xe4, 0x46, 0x07, 0x10, 0x03, 0xaf, 0x5d, 0xe6, 0x0b, 0xe5, 0xab, 0x3b, 0xe1, 0xe9, 0x0a, 0xd2, 0x01, 0x63, 0x17, 0x09, 0xee, 0x10, 0x02, 0xe7, 0x1f, 0xcd, 0xbf, 0xe3, 0xb3, 0x1a, 0x01, 0x21, 0xd9, 0xf8, 0x74, 0x14, 0x2a, 0xbd, 0xda, 0xfa, 0xf6, 0x8e, 0x1a, 0x0a, 0x25, 0x39, 0xcc, 0xc0, 0xd8, 0xbf, 0xf7, 0x1d, 0x41, 0x06, 0xc2, 0xf0, 0x63, 0x09, 0xe5, 0xb5, 0xf0, 0xdf, 0x17, 0x41, 0x2e, 0xe4, 0x2b, 0x3e, 0x10, 0xd9, 0x02, 0x06, 0xd5, 0xf9, 0xf4, 0x0a, 0x1c, 0xeb, 0xfb, 0xe4, 0xe4, 0x14, 0xe8, 0xf7, 0xfe, 0xf7, 0xf5, 0x12, 0x00, 0x08, 0xfe, 0x20, 0xb2, 0xf4, 0xfb, 0xf9, 0x0b, 0xdd, 0xf8, 0xf1, 0x14, 0xfa, 0x0d, 0xf2, 0x09, 0xd5, 0x11, 0x11, 0x02, 0xf9, 0x0e, 0xed, 0xee, 0x14, 0x05, 0xe6, 0x11, 0xdb, 0x05, 0x0b, 0x0c, 0xbf, 0x18, 0x0b, 0xcb, 0x03, 0x11, 0x18, 0x22, 0x00, 0xec, 0x1a, 0x10, 0xbf, 0xd6, 0xc0, 0xc8, 0xf5, 0x1a, 0x22, 0x09, 0xf8, 0xf5, 0xbc, 0xef, 0xcc, 0x12, 0xea, 0x15, 0xd9, 0xae, 0xdf, 0xfa, 0xf3, 0xf6, 0xef, 0x97, 0xd3, 0x0e, 0x29, 0xb6, 0xd7, 0x0b, 0x1c, 0xee, 0xc1, 0xd9, 0xea, 0x11, 0x0a, 0x07, 0xf7, 0x09, 0xf7, 0xfd, 0xf8, 0x15, 0x4a, 0xfe, 0xf2, 0xfe, 0x02, 0xde, 0xed, 0x20, 0x48, 0xea, 0xf9, 0x19, 0x13, 0x11, 0xf9, 0x25, 0x20, 0x02, 0xff, 0x03, 0x22, 0xe1, 0x0d, 0x13, 0xf6, 0x21, 0x03, 0xf8, 0x35, 0x12, 0x35, 0xec, 0xfa, 0x03, 0xf3, 0x0c, 0x16, 0x0c, 0xf0, 0x1e, 0xd8, 0x30, 0xe7, 0x03, 0x32, 0xfd, 0x26, 0x12, 0xd2, 0xd8, 0x01, 0xf3, 0xf5, 0xda, 0xd9, 0xd1, 0xfc, 0x0a, 0x14, 0x29, 0x0f, 0xf8, 0xe1, 0x08, 0xed, 0x09, 0x33, 0x3e, 0xc9, 0xdf, 0x0d, 0xcd, 0x35, 0xdf, 0xf2, 0xe6, 0xfd, 0x06, 0x11, 0xe2, 0xe2, 0x0c, 0x17, 0x09, 0xb7, 0x04, 0xf2, 0xeb, 0x56, 0x0f, 0xeb, 0xe3, 0xef, 0xf1, 0xd9, 0x03, 0x60, 0xff, 0xd9, 0xe6, 0x0f, 0xe7, 0x00, 0xfe, 0x48, 0xf6, 0x1b, 0x1b, 0x0f, 0xee, 0xfa, 0x2a, 0x47, 0xdc, 0x1a, 0xf0, 0x35, 0x02, 0x21, 0x21, 0xbe, 0x09, 0x19, 0xe7, 0x1b, 0xfd, 0x14, 0x1d, 0x12, 0x21, 0x1f, 0x27, 0xe6, 0x1b, 0xf2, 0x36, 0xe5, 0x1b, 0x05, 0x03, 0x0c, 0x3c, 0x2a, 0xe1, 0xe5, 0xdf, 0x00, 0xe5, 0xe8, 0x01, 0xda, 0x0f, 0x26, 0x23, 0xf1, 0x03, 0xf4, 0xec, 0xf6, 0xee, 0x24, 0x06, 0x48, 0x12, 0xf8, 0x25, 0x08, 0x18, 0x7f, 0x0f, 0x06, 0x1d, 0x24, 0x23, 0x22, 0xfc, 0x22, 0x1f, 0xe6, 0xf5, 0xcb, 0x1c, 0x01, 0xd4, 0x0c, 0xc3, 0xfa, 0xf5, 0xe9, 0x14, 0x31, 0xcf, 0x43, 0x3f, 0x11, 0x21, 0xfc, 0x1f, 0x10, 0x34, 0x4c, 0xe3, 0x09, 0xe8, 0xd4, 0x24, 0xdf, 0xd8, 0x5c, 0xd8, 0x20, 0x0a, 0x3b, 0xff, 0x0c, 0xeb, 0x32, 0x0a, 0xfc, 0x5a, 0xc7, 0x32, 0xe1, 0xdf, 0x03, 0xe9, 0xb4, 0xec, 0xe3, 0xfe, 0x49, 0x2d, 0xcf, 0x20, 0xd8, 0xf0, 0xda, 0x3f, 0xcc, 0x23, 0x1e, 0xff, 0xd7, 0xe8, 0x2a, 0x01, 0x9d, 0xfe, 0xec, 0xe5, 0xdd, 0xfd, 0xf1, 0x1c, 0xe4, 0x23, 0x6c, 0xe9, 0xbe, 0xe6, 0x0a, 0x44, 0xf9, 0xe7, 0x11, 0xd6, 0xfb, 0x3b, 0xdc, 0x25, 0xf4, 0xc7, 0x2e, 0x0e, 0x30, 0x03, 0xf0, 0x0a, 0x29, 0xeb, 0x27, 0xab, 0x29, 0xbe, 0x94, 0xdd, 0xd9, 0x16, 0x1b, 0x54, 0x11, 0x33, 0xf2, 0x14, 0x29, 0xe8, 0xfb, 0x40, 0x32, 0x2f, 0xf5, 0xf3, 0xdf, 0x07, 0x1d, 0xed, 0xff, 0xf2, 0x37, 0x25, 0xed, 0x3d, 0xd4, 0xf9, 0x4c, 0x23, 0x0e, 0x32, 0x2e, 0x26, 0x4c, 0xbd, 0x81, 0x11, 0x13, 0x40, 0x2b, 0x26, 0x0e, 0xe2, 0x08, 0x0a, 0x00, 0x22, 0x06, 0x19, 0x2a, 0x2c, 0xe7, 0xd7, 0xc3, 0x3f, 0x0f, 0xdc, 0xd5, 0xdc, 0xe2, 0x33, 0xda, 0xb8, 0x3d, 0xe0, 0x5e, 0x04, 0x28, 0xe3, 0x0a, 0xe7, 0xf9, 0xff, 0x2e, 0xc6, 0xdf, 0xfe, 0x07, 0xe4, 0xeb, 0x0d, 0x43, 0xf4, 0x1c, 0x00, 0x1e, 0x2e, 0xfb, 0x0e, 0xfd, 0x12, 0x03, 0x24, 0xb1, 0xfc, 0xd0, 0x17, 0x12, 0x38, 0xd3, 0x25, 0xe6, 0xd2, 0xdb, 0xff, 0x3e, 0x24, 0xd3, 0xee, 0x2d, 0xf2, 0xec, 0x32, 0x35, 0xcc, 0xd3, 0x1c, 0x42, 0x23, 0x31, 0x40, 0xd1, 0xf3, 0x24, 0xdd, 0x15, 0xf8, 0xfb, 0xc2, 0xf7, 0x0c, 0xfc, 0xe4, 0xfb, 0x2d, 0x0f, 0x13, 0x2f, 0xcb, 0x0a, 0xf8, 0xfe, 0x33, 0xe9, 0xcd, 0xee, 0x23, 0xf5, 0x1a, 0x93, 0x0b, 0xc3, 0xfe, 0x2a, 0x25, 0x19, 0xf4, 0xf4, 0xf1, 0x3f, 0x14, 0x1e, 0x39, 0x38, 0x03, 0x18, 0xe1, 0x01, 0xbb, 0x17, 0x30, 0x27, 0x11, 0xc1, 0xec, 0x20, 0xf8, 0xff, 0x03, 0x29, 0x33, 0xf3, 0xe0, 0xdd, 0x0f, 0xbc, 0xe3, 0x03, 0xd9, 0xf0, 0xf2, 0xea, 0x17, 0xf8, 0xfb, 0xf6, 0x02, 0x40, 0xf8, 0x05, 0x1e, 0xcb, 0x0b, 0xed, 0x27, 0x13, 0xc2, 0x19, 0xfb, 0xfe, 0xe5, 0xff, 0xf3, 0x9f, 0x1d, 0xdb, 0xfc, 0x0f, 0xc9, 0x24, 0xc1, 0xe2, 0xfa, 0x9b, 0xf6, 0xa3, 0xda, 0x01, 0xf7, 0x24, 0xea, 0xe1, 0xd5, 0xc7, 0xf2, 0xe8, 0xfa, 0xc6, 0xf8, 0x18, 0xf5, 0xe8, 0x2e, 0x19, 0x1a, 0x7f, 0xc7, 0x34, 0xba, 0x82, 0xe5, 0xee, 0xd9, 0xe7, 0x2a, 0xd8, 0x10, 0xed, 0xee, 0xb8, 0xf2, 0xfe, 0xe0, 0xfb, 0x0f, 0xa8, 0xfa, 0xd7, 0xdc, 0x23, 0x0e, 0x0c, 0x3a, 0xa7, 0x2c, 0xf9, 0x2b, 0xe5, 0x48, 0x1d, 0x16, 0x23, 0x06, 0x17, 0x09, 0xe8, 0xe0, 0x01, 0xff, 0x0a, 0xf5, 0xf3, 0xea, 0x2b, 0x13, 0xfb, 0xe2, 0xea, 0xee, 0x06, 0x25, 0xf7, 0x11, 0x16, 0xff, 0xe5, 0xe7, 0xe9, 0x06, 0xe0, 0x1e, 0x15, 0x0e, 0xf2, 0xeb, 0xf4, 0xd6, 0xee, 0x34, 0x13, 0x2a, 0x1b, 0xc7, 0xfc, 0xd4, 0x3a, 0xf1, 0xde, 0xf1, 0x1e, 0xc6, 0xee, 0xf7, 0xe2, 0xf8, 0x04, 0x07, 0xfb, 0x1a, 0x03, 0x1c, 0x67, 0xa1, 0x32, 0xe5, 0xf5, 0x15, 0xee, 0x34, 0x0e, 0x0e, 0x06, 0xff, 0x58, 0xf1, 0x23, 0xdd, 0x12, 0x32, 0x0f, 0xef, 0x20, 0x34, 0xeb, 0x24, 0xff, 0x11, 0xfa, 0x1c, 0x2c, 0xe4, 0x03, 0x05, 0xf5, 0x19, 0x12, 0xf0, 0xfb, 0x12, 0xc6, 0xf4, 0xe2, 0x16, 0x21, 0x04, 0xff, 0x00, 0xfd, 0x0e, 0xf2, 0x0b, 0xf4, 0x0a, 0xef, 0x16, 0xf1, 0x33, 0xe7, 0xf1, 0xce, 0xe8, 0xda, 0x04, 0xe0, 0x19, 0x19, 0x25, 0xec, 0xf6, 0x07, 0xf6, 0xeb, 0xed, 0xea, 0x18, 0x4b, 0x39, 0x10, 0xe4, 0xed, 0xf9, 0xf2, 0x3e, 0xe0, 0xe2, 0x18, 0xf2, 0x05, 0x1a, 0x09, 0x17, 0xdc, 0xed, 0x05, 0x02, 0x08, 0x09, 0x41, 0xdd, 0x0b, 0x16, 0x05, 0x17, 0x07, 0xf3, 0xee, 0xe7, 0x2a, 0x1c, 0x34, 0xf4, 0x1b, 0x07, 0x1f, 0x4b, 0x00, 0xe4, 0x41, 0x0f, 0xf8, 0xfd, 0xf6, 0xef, 0xed, 0xf5, 0x65, 0xe4, 0xfb, 0x10, 0xd7, 0xf3, 0xe5, 0x1e, 0xd6, 0xf3, 0x21, 0xbd, 0xd8, 0x1b, 0xf0, 0x32, 0xdb, 0xf1, 0xc3, 0xfd, 0xe7, 0x0c, 0x1b, 0xf5, 0xbc, 0xd1, 0x24, 0x1c, 0xf1, 0xce, 0xe7, 0xea, 0x2b, 0xe7, 0xfd, 0xef, 0x1c, 0x1c, 0x1a, 0x12, 0x02, 0xf6, 0x21, 0x03, 0xfb, 0xef, 0xed, 0xfd, 0x1d, 0xed, 0x02, 0xfe, 0x41, 0x38, 0xfa, 0xf5, 0x0e, 0x19, 0x3a, 0x39, 0xf9, 0xee, 0x1b, 0xf9, 0xed, 0xe3, 0x20, 0xfa, 0x1c, 0xd1, 0x0d, 0xca, 0xf4, 0xf7, 0x09, 0x17, 0x24, 0xe6, 0xdd, 0xed, 0xbf, 0xe3, 0xf0, 0xf8, 0xee, 0xfc, 0x07, 0xf8, 0xa4, 0xcd, 0xdf, 0xd9, 0x1c, 0xfc, 0x07, 0xda, 0xed, 0x25, 0x08, 0x0c, 0xdb, 0xf6, 0xcd, 0x27, 0x0f, 0xdd, 0xf2, 0x0a, 0x14, 0x18, 0xeb, 0xe6, 0xd0, 0x27, 0xd0, 0xe8, 0x11, 0x0a, 0xfa, 0x01, 0xdf, 0xf9, 0x29, 0x08, 0x0d, 0xf4, 0xf7, 0xfd, 0x24, 0x0b, 0xf3, 0x0b, 0xc4, 0x06, 0xfe, 0xee, 0xe1, 0x08, 0x3e, 0xef, 0xea, 0xf3, 0x19, 0x26, 0x01, 0x04, 0xf3, 0x05, 0x1d, 0xfb, 0x19, 0x20, 0x15, 0x09, 0x26, 0xf0, 0x29, 0x04, 0x1f, 0x08, 0x27, 0x00, 0x00, 0x10, 0x15, 0xf6, 0x39, 0xec, 0xe9, 0x21, 0xee, 0x33, 0xda, 0x07, 0x1d, 0x0b, 0xa8, 0x02, 0x15, 0xf0, 0xed, 0xc5, 0x02, 0x22, 0xa9, 0x09, 0xf8, 0xd7, 0x01, 0xfe, 0x23, 0x0d, 0x01, 0x2e, 0xfe, 0xe7, 0xd6, 0x3f, 0x04, 0x2e, 0x2d, 0xf1, 0xd1, 0x01, 0xce, 0xfa, 0x13, 0x1c, 0x7f, 0xe6, 0x22, 0xe2, 0xf8, 0x00, 0x20, 0xf8, 0x08, 0x04, 0xd8, 0x15, 0xe9, 0xf5, 0x1f, 0xe3, 0x1b, 0xd7, 0x05, 0x0d, 0xf9, 0x1e, 0xf6, 0x26, 0xf7, 0xf7, 0x31, 0xee, 0x0f, 0x11, 0xe0, 0x1d, 0x4d, 0x04, 0x09, 0xde, 0x18, 0x01, 0xd8, 0xea, 0x35, 0xf5, 0xf3, 0x0b, 0x15, 0x03, 0x25, 0x14, 0x00, 0x3c, 0x32, 0x14, 0x01, 0x06, 0xe1, 0xc8, 0xf8, 0x2a, 0x0b, 0x2a, 0x0d, 0xff, 0xfd, 0x0b, 0xfd, 0x41, 0xff, 0x10, 0x1f, 0xce, 0xea, 0x25, 0x11, 0x0b, 0xe5, 0xfc, 0x01, 0x0a, 0x2f, 0x1e, 0x05, 0x12, 0x03, 0xe7, 0xee, 0x2f, 0xfb, 0x03, 0x28, 0xfc, 0x29, 0x1e, 0x03, 0x14, 0xfb, 0x09, 0x2a, 0x1b, 0x38, 0xec, 0x0f, 0x32, 0xec, 0xfa, 0xda, 0xfb, 0x08, 0xcf, 0x0a, 0xf3, 0x2e, 0xf6, 0x0d, 0x11, 0x17, 0x12, 0x08, 0x34, 0x1a, 0x3d, 0xe5, 0xf3, 0x16, 0xef, 0x16, 0x0b, 0x1d, 0x11, 0x7f, 0xf1, 0x0a, 0xcb, 0xdf, 0xf8, 0xf6, 0x0e, 0xf2, 0xc4, 0xf8, 0x05, 0x00, 0x0d, 0x4e, 0xd5, 0xf9, 0x23, 0x04, 0x14, 0xf9, 0xd6, 0x1b, 0x0b, 0xde, 0xe6, 0x0f, 0x0c, 0x08, 0xe4, 0x35, 0x17, 0xf8, 0x04, 0x1d, 0x35, 0xe4, 0xef, 0xf0, 0x3c, 0xda, 0x00, 0xeb, 0xf3, 0x0c, 0xe5, 0x10, 0xd0, 0xc2, 0x05, 0x27, 0x0d, 0xe7, 0x1b, 0x06, 0xf9, 0x08, 0xd3, 0xd4, 0x2f, 0x26, 0xf5, 0x17, 0xed, 0xef, 0xf0, 0xeb, 0xfe, 0x02, 0x1a, 0x05, 0x0b, 0xd3, 0xf2, 0x02, 0x17, 0xdc, 0xcf, 0x10, 0x09, 0xe4, 0x10, 0x1c, 0xd0, 0x0a, 0x1e, 0x19, 0xf1, 0x01, 0xcd, 0xec, 0xec, 0xf5, 0xdc, 0x51, 0xd1, 0x55, 0x34, 0xd8, 0x12, 0xc5, 0x51, 0xf9, 0xfc, 0xac, 0xd3, 0x05, 0x27, 0xee, 0xfa, 0x36, 0x2d, 0x3c, 0x0a, 0x3c, 0x0c, 0xf4, 0xf9, 0xc6, 0x24, 0x07, 0xf1, 0x04, 0xe4, 0xec, 0xe8, 0x1c, 0xef, 0xde, 0x0c, 0x0e, 0x21, 0xe8, 0x02, 0x0a, 0xfa, 0x6f, 0xf4, 0x08, 0xf4, 0xf4, 0x0a, 0x2c, 0x13, 0x23, 0x1c, 0x20, 0xeb, 0xb5, 0xf0, 0xcf, 0xc8, 0x0b, 0xf0, 0xdf, 0xef, 0x1a, 0x1f, 0x1c, 0xe9, 0xc3, 0x0a, 0xc0, 0x3b, 0xfe, 0xf9, 0x13, 0xf9, 0x89, 0x10, 0xe5, 0x1c, 0xed, 0x01, 0xe3, 0xfe, 0xd2, 0xd1, 0x19, 0x07, 0xf4, 0xcb, 0xee, 0xf4, 0xf8, 0x17, 0x0e, 0x08, 0x24, 0x17, 0x28, 0x40, 0xdc, 0xd8, 0xc2, 0x01, 0x04, 0x2c, 0xfa, 0xc5, 0xb6, 0xea, 0x1e, 0x2f, 0x0f, 0x32, 0xbf, 0x0a, 0x20, 0xb9, 0x1e, 0xd3, 0x02, 0xde, 0x11, 0xbc, 0xfc, 0xee, 0xee, 0x25, 0x23, 0xfb, 0xd1, 0x0d, 0xd1, 0x09, 0xf2, 0x1c, 0x0a, 0xdb, 0xed, 0x07, 0xec, 0xde, 0x18, 0xca, 0x0a, 0x29, 0x2b, 0x0a, 0x16, 0xf4, 0xe5, 0x18, 0xd1, 0x23, 0xfa, 0xc3, 0x1b, 0xdc, 0xfa, 0x0a, 0xd3, 0x21, 0xd6, 0xf6, 0x3a, 0xf7, 0xe9, 0xde, 0xee, 0x07, 0x1d, 0xfd, 0x31, 0x03, 0x14, 0xde, 0x1e, 0x20, 0xdf, 0x24, 0x36, 0xdd, 0x04, 0xd6, 0xd7, 0xcd, 0xe5, 0xd3, 0x28, 0xfd, 0x24, 0xf4, 0xfc, 0x05, 0xbc, 0xee, 0xe2, 0xed, 0xb9, 0xf5, 0x07, 0x8f, 0x03, 0x04, 0xca, 0xce, 0xcb, 0x9f, 0xf2, 0x0a, 0xfc, 0xde, 0xca, 0x1a, 0x17, 0xec, 0xdb, 0xe4, 0x17, 0xba, 0xb9, 0x0a, 0xf4, 0xd4, 0xb9, 0xee, 0xa5, 0xe7, 0xc4, 0xfe, 0xb2, 0x11, 0x16, 0xae, 0x14, 0xe9, 0xa6, 0xf2, 0xfa, 0xb6, 0xf9, 0x0d, 0xde, 0xd8, 0x9c, 0xf8, 0xdb, 0x1c, 0xaf, 0x10, 0x12, 0x10, 0x1c, 0x06, 0x0a, 0xf0, 0x0a, 0xf4, 0xd5, 0x21, 0x7f, 0xfe, 0x2a, 0xe3, 0xfa, 0x0b, 0xd6, 0x0d, 0x40, 0xed, 0x0c, 0xeb, 0x0f, 0x06, 0x1c, 0x24, 0x51, 0xff, 0x0c, 0x13, 0x1a, 0x07, 0x09, 0xf0, 0xef, 0xe8, 0x13, 0x07, 0x04, 0x1e, 0x21, 0xf6, 0x51, 0xf5, 0x12, 0xe1, 0xff, 0x02, 0x06, 0x09, 0xd6, 0xce, 0xe3, 0xc4, 0x3f, 0x0e, 0x17, 0xe3, 0xdd, 0x27, 0x03, 0x00, 0xf6, 0x18, 0xf2, 0x06, 0x36, 0x06, 0xee, 0xf3, 0xfe, 0xfa, 0x1a, 0x1d, 0x1b, 0xf5, 0xec, 0x0c, 0xfc, 0x2e, 0x12, 0x06, 0xf0, 0x1e, 0x03, 0x1d, 0x18, 0x0d, 0x29, 0xcc, 0x2b, 0xe0, 0xf8, 0xec, 0xf9, 0x01, 0x0a, 0x01, 0x1e, 0x0b, 0xeb, 0x00, 0xc1, 0x2b, 0xff, 0xe9, 0x75, 0xfd, 0xfc, 0xee, 0xf7, 0x2a, 0x1c, 0xf0, 0x34, 0xd7, 0xfe, 0xdd, 0x01, 0x11, 0x04, 0x10, 0x20, 0xe4, 0x17, 0x06, 0x11, 0xfa, 0xff, 0xfc, 0x21, 0x03, 0x04, 0x11, 0x06, 0xfc, 0x30, 0xe0, 0x22, 0x05, 0xef, 0x0f, 0x04, 0xfc, 0xf8, 0x1b, 0xa4, 0xe5, 0xf1, 0xf7, 0x12, 0xe2, 0x2a, 0xd6, 0xf2, 0x28, 0x1b, 0xdf, 0xd1, 0x20, 0xea, 0xe4, 0x12, 0x03, 0x08, 0xe7, 0x00, 0x0d, 0x16, 0x13, 0x09, 0x02, 0x35, 0x05, 0xf5, 0xf8, 0xdc, 0x0f, 0x16, 0x0e, 0x23, 0xfc, 0x15, 0x02, 0xed, 0x09, 0x13, 0x10, 0xf4, 0xf9, 0x0f, 0xf1, 0x0b, 0x20, 0xeb, 0x2b, 0x10, 0x08, 0x20, 0xef, 0x22, 0xea, 0xff, 0x08, 0x7f, 0xf7, 0x1f, 0x02, 0xfe, 0x31, 0x24, 0x1b, 0xee, 0xf0, 0x1e, 0xed, 0x38, 0x17, 0x0d, 0x1a, 0x17, 0x16, 0x17, 0xe5, 0xce, 0x25, 0xfc, 0x3d, 0xfb, 0x17, 0x10, 0x0b, 0xbf, 0xe4, 0xb7, 0x24, 0x2f, 0xb9, 0x02, 0xcb, 0x02, 0x12, 0x57, 0xea, 0xeb, 0xc7, 0xf5, 0xd4, 0xe3, 0x22, 0xea, 0xfb, 0xe1, 0x04, 0xec, 0xf5, 0x15, 0x1d, 0xbe, 0xc9, 0xfa, 0x0b, 0xe8, 0x18, 0xe6, 0x03, 0xd6, 0x0f, 0xea, 0xf8, 0x20, 0xdd, 0x13, 0x04, 0xcc, 0xfe, 0xf5, 0x0b, 0x2c, 0x03, 0xee, 0xd3, 0xfe, 0xcb, 0x0f, 0xff, 0x14, 0xee, 0xd4, 0xf7, 0xf4, 0x3c, 0x0c, 0x1b, 0x19, 0x11, 0x0c, 0xf6, 0xd4, 0x28, 0x4a, 0x0c, 0x10, 0x27, 0xfd, 0x21, 0x53, 0xdd, 0x06, 0xfc, 0x08, 0xe3, 0x2c, 0xed, 0xde, 0x31, 0x21, 0x0d, 0xfa, 0xa1, 0x0b, 0x41, 0xf8, 0x1d, 0xd1, 0x04, 0x12, 0xea, 0xf9, 0x0a, 0xcf, 0x20, 0x30, 0x09, 0x18, 0xc2, 0x10, 0xfb, 0x0d, 0xc6, 0xf0, 0x19, 0xf5, 0xfd, 0xee, 0xe5, 0x01, 0xdd, 0xea, 0x07, 0x0d, 0x18, 0x38, 0x04, 0xed, 0xe9, 0x20, 0xf8, 0x1b, 0xe6, 0x16, 0x2a, 0x9e, 0x14, 0xe7, 0xf2, 0x1e, 0x1c, 0xe3, 0x19, 0xd4, 0xf3, 0x1a, 0xdd, 0x36, 0x1d, 0xc7, 0x19, 0xd2, 0xe2, 0xfb, 0xf8, 0x09, 0xec, 0xf4, 0xf4, 0xd7, 0x46, 0x10, 0x02, 0x26, 0xf6, 0xf1, 0x09, 0xd4, 0x19, 0x0e, 0xf3, 0x03, 0x17, 0xeb, 0x22, 0x45, 0xe9, 0xfe, 0xed, 0x05, 0xd7, 0xf0, 0x26, 0x26, 0xdd, 0x0f, 0x05, 0x2b, 0xe5, 0xf7, 0x11, 0xf2, 0xc8, 0xe4, 0xfa, 0xc9, 0xfa, 0xce, 0xfa, 0x9e, 0xd9, 0xd0, 0xfd, 0xe2, 0x0e, 0xd6, 0xe2, 0x13, 0x05, 0xeb, 0x15, 0xeb, 0xf2, 0xfb, 0xf6, 0xd7, 0xa0, 0xea, 0xe2, 0xdc, 0x37, 0x12, 0x19, 0x2c, 0x12, 0xcb, 0xe5, 0xfb, 0x2a, 0xde, 0xee, 0xe7, 0x1e, 0xc3, 0xce, 0x19, 0xe8, 0xd3, 0xbd, 0xe8, 0xc1, 0xfe, 0xee, 0x08, 0xee, 0x0f, 0x18, 0xe9, 0xae, 0x11, 0x1a, 0xc7, 0x30, 0xcc, 0x61, 0x4f, 0xfe, 0xfa, 0x10, 0x27, 0xf7, 0x44, 0xf9, 0x4b, 0xe8, 0x1e, 0x19, 0x10, 0x56, 0x02, 0xdd, 0x48, 0x0b, 0x1b, 0x28, 0xd2, 0xcc, 0xde, 0xf0, 0x27, 0xf1, 0xf1, 0x15, 0xed, 0x0e, 0xf5, 0x20, 0x14, 0x16, 0x12, 0xcd, 0xef, 0xfd, 0x2f, 0x0b, 0x39, 0x16, 0xec, 0x0c, 0x0d, 0x18, 0xe3, 0xcf, 0x14, 0xe3, 0xff, 0xf9, 0xda, 0x03, 0xf7, 0xe7, 0x05, 0xfe, 0xeb, 0xe4, 0x28, 0x40, 0xe4, 0x7f, 0x36, 0x03, 0xef, 0x18, 0xed, 0x2a, 0x34, 0xe7, 0x10, 0x04, 0x0f, 0xe7, 0x11, 0x19, 0x03, 0x07, 0x01, 0xe3, 0x16, 0x3f, 0x05, 0x1a, 0xd2, 0xc0, 0xf8, 0x1c, 0x07, 0x02, 0x16, 0x23, 0xc7, 0x23, 0x50, 0x00, 0x14, 0xda, 0x16, 0x1c, 0x20, 0x16, 0x23, 0x04, 0x1a, 0xe5, 0x13, 0xfe, 0x17, 0xd7, 0x55, 0x14, 0x16, 0x22, 0xee, 0xf2, 0xe8, 0x08, 0x26, 0xf5, 0xeb, 0x11, 0xf8, 0x0d, 0xd8, 0x1e, 0xea, 0xf5, 0xe5, 0x06, 0xde, 0xf5, 0xdd, 0xf7, 0x25, 0x05, 0x0a, 0x0c, 0xe9, 0x1a, 0x03, 0xfc, 0x1d, 0xf2, 0xe3, 0x21, 0xc4, 0xf5, 0xe4, 0xd8, 0xef, 0xfc, 0x08, 0xf7, 0x30, 0x6a, 0xf4, 0x36, 0x1b, 0x0f, 0xdd, 0xf0, 0xfb, 0xeb, 0x36, 0x16, 0x4e, 0x07, 0x06, 0x01, 0x15, 0x18, 0x2e, 0x06, 0x07, 0xfb, 0xfd, 0x35, 0x1b, 0x1a, 0xe7, 0xdc, 0x27, 0x00, 0xf9, 0xf9, 0x10, 0x40, 0xdd, 0x5a, 0x24, 0x06, 0xf9, 0xbf, 0xdf, 0x05, 0x42, 0xf0, 0x3a, 0xf4, 0x22, 0xe8, 0x16, 0x50, 0x26, 0xc7, 0x2f, 0x20, 0x19, 0x51, 0xba, 0xe6, 0x28, 0xf8, 0x3e, 0x10, 0xe1, 0xf6, 0x26, 0x10, 0xe1, 0x29, 0x1b, 0x00, 0x24, 0x0c, 0xdc, 0xea, 0x01, 0xf9, 0x45, 0xe7, 0x15, 0x12, 0x19, 0xee, 0xfe, 0xeb, 0x3f, 0xd8, 0x1c, 0xfc, 0xf5, 0xdd, 0xef, 0xf1, 0xe3, 0x02, 0xfc, 0xe7, 0x31, 0x4c, 0x1c, 0x36, 0x02, 0xe3, 0xf9, 0x16, 0xee, 0x06, 0x15, 0xe8, 0x56, 0xeb, 0xfa, 0x0d, 0x13, 0x2e, 0x12, 0xfd, 0x29, 0xdf, 0xf8, 0x09, 0x0e, 0x13, 0xe7, 0xed, 0xfe, 0x14, 0xf4, 0x0e, 0xa0, 0xec, 0xe4, 0x12, 0x20, 0xe9, 0x1a, 0xc5, 0xd4, 0x1d, 0xeb, 0x1a, 0xfd, 0x07, 0x12, 0x51, 0x12, 0xd3, 0xdf, 0xf0, 0xa6, 0x19, 0xf4, 0x18, 0xf3, 0x9a, 0x25, 0xe5, 0xdf, 0x18, 0x15, 0x28, 0xf8, 0xff, 0xf5, 0x46, 0xcc, 0x04, 0x0b, 0x19, 0x04, 0x35, 0xeb, 0xf1, 0x41, 0x0f, 0x23, 0x0b, 0xc8, 0xfd, 0x0d, 0x03, 0x23, 0xf0, 0x14, 0x25, 0xef, 0xda, 0x09, 0xfe, 0xc0, 0xef, 0xc6, 0xf0, 0x99, 0xa4, 0x28, 0x81, 0xf7, 0x00, 0x29, 0x03, 0xc5, 0xf0, 0xb1, 0xf0, 0x0b, 0x48, 0xc5, 0x2c, 0xf9, 0xe2, 0xfe, 0x0d, 0x0e, 0x0d, 0xeb, 0xa6, 0xd8, 0xde, 0xf3, 0x1e, 0xed, 0x05, 0x04, 0xdd, 0xf0, 0x44, 0x04, 0x10, 0xef, 0xfa, 0xf5, 0xf2, 0xef, 0x14, 0x0d, 0x24, 0xc5, 0x28, 0x37, 0xf8, 0x03, 0x31, 0x13, 0xc9, 0xe5, 0xb9, 0x30, 0xe7, 0xe9, 0xf3, 0x2e, 0xd2, 0x0b, 0x0b, 0xc4, 0x29, 0x3d, 0xfc, 0x46, 0x47, 0xfd, 0x23, 0xe7, 0x05, 0xf4, 0x06, 0x52, 0x01, 0x1c, 0x18, 0x3b, 0x22, 0xe2, 0x69, 0xf3, 0x1c, 0xd8, 0x0b, 0xf2, 0xfc, 0xf7, 0x40, 0xf1, 0xfc, 0xc9, 0x22, 0xe7, 0xe3, 0x9d, 0x0a, 0xea, 0xb1, 0x5c, 0x09, 0x06, 0xfc, 0xf9, 0xf2, 0xe1, 0xdd, 0x27, 0x2c, 0xfa, 0xe1, 0xf7, 0x3c, 0x05, 0x3a, 0x2e, 0xf8, 0x2b, 0x02, 0xf7, 0x1a, 0x00, 0x10, 0xf8, 0xf7, 0x10, 0xd1, 0x0e, 0x42, 0x37, 0x17, 0x0c, 0x14, 0xe0, 0x08, 0xf4, 0xd5, 0x1d, 0x14, 0xc8, 0xe6, 0xd9, 0xf4, 0x24, 0xe5, 0x04, 0x11, 0xf3, 0xdd, 0x11, 0xfd, 0xd9, 0x13, 0x05, 0xf0, 0x9e, 0x1b, 0xd2, 0xf0, 0x55, 0xc7, 0x1a, 0x66, 0xf3, 0xf2, 0xfe, 0xf4, 0xe2, 0x26, 0x4d, 0x32, 0x0b, 0x13, 0xb2, 0xfb, 0xe8, 0x3b, 0xf8, 0x08, 0xeb, 0xdd, 0xfb, 0x0f, 0x0b, 0x3a, 0x0a, 0x14, 0x26, 0xac, 0x0f, 0x00, 0xb7, 0x3a, 0xc2, 0xd7, 0x42, 0xfa, 0xe5, 0xfc, 0xf9, 0x09, 0xf2, 0xf8, 0x49, 0x27, 0x07, 0xd9, 0xf8, 0x2d, 0x32, 0xed, 0x42, 0xdf, 0x08, 0x46, 0xf6, 0x1c, 0xf8, 0x4b, 0x2e, 0xc9, 0xf5, 0x35, 0x3d, 0xc2, 0x60, 0xbb, 0xd5, 0xf1, 0x22, 0x1b, 0xfc, 0x11, 0x1e, 0xf9, 0x02, 0x07, 0x24, 0xe4, 0xf5, 0x67, 0x0d, 0x06, 0x01, 0x05, 0x12, 0xeb, 0xf3, 0xda, 0xf4, 0x1d, 0x02, 0x2b, 0xf6, 0xde, 0xfb, 0x1d, 0x1b, 0x1e, 0xed, 0x09, 0xf8, 0xf5, 0x05, 0x00, 0x17, 0x27, 0x42, 0xed, 0x16, 0xfa, 0xef, 0xf9, 0xe4, 0xe1, 0x07, 0xef, 0x09, 0xf7, 0xdb, 0xfc, 0x0d, 0xf7, 0x27, 0xe7, 0xfc, 0x1d, 0x24, 0x1f, 0xf2, 0xfe, 0x15, 0xf7, 0x1a, 0x1f, 0xf2, 0x19, 0xf3, 0xfa, 0xfa, 0x02, 0xea, 0x04, 0x05, 0x14, 0x14, 0xe3, 0xfc, 0xde, 0x09, 0xf5, 0x09, 0x05, 0x1f, 0xf6, 0xd5, 0xf4, 0xe9, 0xf5, 0x62, 0x89, 0x3e, 0xac, 0xbf, 0xe4, 0xec, 0xf9, 0x0f, 0x04, 0x04, 0x22, 0x08, 0xf3, 0x18, 0xff, 0x16, 0x40, 0x0e, 0xd0, 0x22, 0xf5, 0xea, 0x03, 0xcf, 0xe4, 0x32, 0xf6, 0x4e, 0x42, 0xfa, 0xf6, 0x16, 0x0b, 0x2d, 0x31, 0xcc, 0x1a, 0xec, 0xf7, 0x1c, 0xfa, 0x21, 0xe1, 0x25, 0xf2, 0xfb, 0xf3, 0x16, 0x10, 0x0e, 0x09, 0xf8, 0x0e, 0x0d, 0x0a, 0x05, 0xf2, 0x05, 0xf1, 0x0f, 0x24, 0x02, 0x0e, 0x04, 0xe5, 0xfe, 0x24, 0xf8, 0x1d, 0xe9, 0x19, 0xff, 0xdf, 0x12, 0x0b, 0xe2, 0x03, 0x24, 0x0d, 0xf2, 0x13, 0x04, 0xfb, 0x17, 0xcb, 0x07, 0xee, 0xf6, 0x16, 0xeb, 0xf8, 0xc7, 0xd8, 0x03, 0x0e, 0x68, 0x81, 0x1f, 0xc7, 0xab, 0xee, 0x11, 0xf9, 0xfb, 0xef, 0xee, 0x0d, 0xe3, 0xe1, 0x02, 0x08, 0x1a, 0x6f, 0x15, 0xce, 0x14, 0xe2, 0xf0, 0x1c, 0xcd, 0xc5, 0x1a, 0x23, 0x3f, 0xec, 0xeb, 0xea, 0xf8, 0x08, 0x11, 0x25, 0xe7, 0x03, 0x01, 0xfe, 0x13, 0x05, 0x16, 0xff, 0x2f, 0xfa, 0xe3, 0xed, 0x07, 0x50, 0xfe, 0xd5, 0xfb, 0x0f, 0x2a, 0x26, 0x0a, 0xd9, 0x09, 0xe1, 0x11, 0xfb, 0xfb, 0xea, 0x04, 0xed, 0x0a, 0x11, 0xf2, 0x1d, 0xe7, 0xfc, 0xe1, 0xf4, 0x02, 0xe4, 0xf2, 0x1d, 0xfa, 0xfa, 0x11, 0x1a, 0x1f, 0x20, 0x0d, 0xc4, 0x1c, 0x0f, 0xfc, 0x04, 0xf6, 0xf5, 0x08, 0xda, 0x0d, 0xf8, 0x06, 0xf2, 0x00, 0x00, 0xca, 0x1d, 0x08, 0xee, 0xe1, 0xe5, 0xde, 0x00, 0x0e, 0x0c, 0x0c, 0x10, 0x1f, 0xea, 0x16, 0x0d, 0xf3, 0x0c, 0xe1, 0xd6, 0x0b, 0x07, 0xf3, 0xf8, 0x0b, 0x22, 0xee, 0x0c, 0xc7, 0xec, 0x00, 0x17, 0x0a, 0xf1, 0xb9, 0x0f, 0xde, 0xf6, 0xf9, 0x0f, 0xe3, 0x27, 0xbf, 0x0f, 0xda, 0x1f, 0xef, 0xf0, 0x2e, 0x07, 0xf8, 0x0c, 0xe1, 0xf9, 0xe9, 0x21, 0xf8, 0xcc, 0x18, 0xf1, 0x09, 0xf4, 0xc0, 0xf3, 0xde, 0xd6, 0x1c, 0xda, 0xd4, 0x08, 0xec, 0x0c, 0xbb, 0xf8, 0xd4, 0xf8, 0xfc, 0x16, 0x0a, 0xd4, 0xb2, 0x0c, 0x1c, 0x0b, 0x04, 0xee, 0xf5, 0xcc, 0xed, 0xe1, 0xfe, 0x0f, 0xe8, 0x12, 0xdf, 0xf1, 0xe7, 0x02, 0x09, 0xec, 0xe8, 0xf6, 0x0e, 0x23, 0x23, 0xfa, 0x1b, 0x05, 0xf8, 0x19, 0xfd, 0xd7, 0x09, 0xca, 0x08, 0x0a, 0x04, 0xf3, 0xf3, 0x00, 0x09, 0x0a, 0xf2, 0x15, 0xf6, 0xfb, 0xec, 0x01, 0xe9, 0x01, 0xcd, 0xf4, 0xe2, 0x1d, 0xf4, 0xe4, 0xf7, 0x14, 0xdd, 0x20, 0xf3, 0xfa, 0x23, 0xd1, 0x37, 0x58, 0x04, 0x1f, 0xdd, 0xe8, 0x05, 0x39, 0x26, 0xdc, 0x26, 0xe0, 0x1d, 0xeb, 0xee, 0xf8, 0xf5, 0xff, 0xe7, 0x0d, 0xec, 0x19, 0xfe, 0x05, 0x81, 0x0a, 0xd2, 0x0e, 0xe0, 0x2e, 0x16, 0x15, 0xa0, 0xd8, 0x1f, 0xea, 0xea, 0xe0, 0xf9, 0xd8, 0x1a, 0xf0, 0xeb, 0x11, 0xf4, 0xeb, 0x07, 0x11, 0x32, 0xe8, 0x15, 0x17, 0x2a, 0xed, 0x10, 0xdc, 0x39, 0x1f, 0x22, 0x0f, 0xfb, 0x14, 0xf8, 0x08, 0x2a, 0xda, 0xee, 0xec, 0x06, 0x0b, 0x04, 0xf3, 0x01, 0xf8, 0x0d, 0x1d, 0x0e, 0xf9, 0x03, 0x4e, 0xfd, 0x05, 0xe7, 0x1c, 0xf3, 0x01, 0xfc, 0xf2, 0x15, 0x11, 0xec, 0xf2, 0x0b, 0x1a, 0x2d, 0xf7, 0x31, 0x2e, 0xe6, 0x0f, 0x1e, 0x1b, 0xfe, 0xf9, 0x21, 0xe8, 0xf1, 0x17, 0x28, 0x23, 0x13, 0x10, 0x09, 0xec, 0x24, 0xea, 0xd8, 0xee, 0xf1, 0xf7, 0xdd, 0x01, 0xf1, 0x04, 0xe7, 0xe2, 0xf6, 0x22, 0xfd, 0xdd, 0xdd, 0x24, 0xf3, 0x1c, 0x1f, 0xf3, 0xdc, 0x15, 0xea, 0x14, 0xc4, 0xfb, 0xf2, 0x23, 0x3a, 0xf1, 0xe2, 0x14, 0xfa, 0x28, 0x34, 0xd4, 0x46, 0xff, 0xe7, 0x07, 0x0c, 0x1d, 0xe0, 0x06, 0x7f, 0xd4, 0x09, 0x09, 0x14, 0xfe, 0xe3, 0x0b, 0x45, 0xe4, 0x12, 0x1f, 0xe2, 0xe0, 0x07, 0xfe, 0xfc, 0xe1, 0x09, 0x01, 0x13, 0x21, 0x26, 0x03, 0xe6, 0xf3, 0x13, 0xfa, 0xea, 0x11, 0xff, 0x1e, 0xb6, 0x2a, 0xdc, 0xe5, 0x39, 0x0d, 0x29, 0xe9, 0xe3, 0xf4, 0xf2, 0xdd, 0x03, 0xf7, 0x16, 0xf4, 0xf3, 0x03, 0xf1, 0x26, 0xe9, 0x10, 0x05, 0x1b, 0x01, 0xf3, 0x1a, 0xfc, 0x1b, 0x21, 0x10, 0x08, 0xe1, 0x03, 0x18, 0x16, 0x13, 0xe4, 0x10, 0x01, 0x04, 0x08, 0xfb, 0x01, 0x9d, 0xe8, 0x04, 0xed, 0x3c, 0xd2, 0xfc, 0xea, 0xdf, 0x0f, 0xe3, 0xd7, 0x33, 0x1c, 0xc5, 0x09, 0xe3, 0xc3, 0xd6, 0x0b, 0x5e, 0xf7, 0x0a, 0xeb, 0x06, 0xe8, 0xe7, 0x21, 0xf6, 0xe6, 0x02, 0x0e, 0xdb, 0xd1, 0x08, 0xb7, 0xcb, 0xe3, 0xf5, 0xe1, 0x0a, 0xe1, 0x08, 0xd4, 0xe0, 0xf3, 0xa5, 0x06, 0xf8, 0xc4, 0xe9, 0x0c, 0xd3, 0x1a, 0xf2, 0xcc, 0x03, 0x17, 0x20, 0x10, 0xbd, 0x24, 0x24, 0x08, 0xd5, 0xfe, 0x0a, 0xfb, 0xf0, 0x05, 0xf3, 0x53, 0x0e, 0x00, 0x18, 0x0b, 0x08, 0xea, 0x17, 0xf6, 0xe9, 0xfd, 0x0a, 0xff, 0x02, 0xed, 0x19, 0x11, 0xfc, 0xee, 0x1f, 0x03, 0xe5, 0x1b, 0x08, 0xd4, 0xb9, 0x27, 0x0c, 0xbc, 0x4c, 0xf3, 0x02, 0xf3, 0xf7, 0x03, 0xc0, 0x05, 0x45, 0x03, 0xdb, 0xfe, 0x07, 0xbc, 0xfb, 0x0e, 0x2f, 0xff, 0xfb, 0x01, 0xfa, 0x08, 0xfd, 0xfb, 0x14, 0xe5, 0x0c, 0x03, 0xd9, 0xce, 0x30, 0x04, 0xff, 0xdd, 0x1b, 0x1c, 0xff, 0x26, 0x28, 0xf1, 0x01, 0xfa, 0xef, 0xf6, 0xf4, 0xd1, 0xfc, 0x36, 0xe1, 0x33, 0xef, 0xbf, 0x26, 0x18, 0x0b, 0x10, 0xdc, 0x2c, 0x22, 0x18, 0xdb, 0xeb, 0xcb, 0x04, 0x0e, 0xed, 0x0b, 0x33, 0xfe, 0x07, 0xf3, 0xfc, 0x36, 0xf2, 0xfb, 0xf9, 0xfe, 0xf8, 0x02, 0xef, 0x2f, 0xf7, 0x13, 0xf7, 0xe6, 0xe9, 0x07, 0x23, 0x0f, 0x0e, 0x19, 0xe4, 0xf7, 0xa1, 0xf9, 0xf8, 0x0c, 0xc0, 0xce, 0xc1, 0x05, 0xe8, 0x34, 0xe7, 0xea, 0x09, 0xc1, 0xfd, 0xce, 0xde, 0x0d, 0x00, 0xc3, 0x3d, 0x08, 0x15, 0xec, 0x1b, 0xdd, 0xeb, 0x2a, 0x19, 0x13, 0xc8, 0xc1, 0xbd, 0xef, 0xaf, 0x09, 0x93, 0xc0, 0xf2, 0xe1, 0xd9, 0x15, 0x36, 0xb2, 0xcb, 0xbf, 0x2a, 0xf9, 0x12, 0x08, 0xd0, 0xdd, 0xda, 0xf4, 0xc0, 0x13, 0xea, 0x1c, 0xbc, 0xd7, 0x14, 0xcf, 0x21, 0xf2, 0xe2, 0x01, 0x21, 0x06, 0xf0, 0x08, 0x11, 0x0b, 0xef, 0xcc, 0x0b, 0xe6, 0x14, 0xec, 0x1b, 0x0c, 0xf3, 0xf7, 0xe5, 0xff, 0x18, 0xff, 0xf0, 0x26, 0xfc, 0xfd, 0x25, 0xd5, 0xfc, 0xdc, 0xe4, 0xae, 0xc2, 0xdd, 0x08, 0x17, 0xad, 0xdc, 0xdc, 0xde, 0xde, 0xe4, 0x08, 0xe1, 0xfc, 0xbd, 0x3b, 0xef, 0xe9, 0xeb, 0xd4, 0x0c, 0xfd, 0xd7, 0x36, 0xd9, 0xc4, 0x01, 0xf6, 0x05, 0xfd, 0xf7, 0xe4, 0x94, 0x01, 0x00, 0xf6, 0x03, 0xbb, 0x1d, 0xd3, 0x1b, 0x16, 0xfa, 0xe7, 0xca, 0xd4, 0xb5, 0x27, 0xfd, 0xdd, 0x06, 0x08, 0xcb, 0xbe, 0x28, 0xbf, 0xe2, 0xf2, 0xc6, 0xc7, 0x05, 0x02, 0xe8, 0xee, 0x57, 0xa2, 0x02, 0xcf, 0xc2, 0x1d, 0xd2, 0x01, 0x0e, 0x0b, 0xef, 0xeb, 0xe0, 0x22, 0xd1, 0x14, 0xbe, 0xfd, 0xe7, 0x1f, 0xea, 0x12, 0x0b, 0xa7, 0x06, 0x24, 0xf8, 0x2e, 0x0e, 0xea, 0x11, 0x13, 0xc9, 0xfd, 0x14, 0xa3, 0xea, 0xc0, 0x23, 0xb8, 0x21, 0xdf, 0xf0, 0xee, 0xca, 0xe1, 0x01, 0x01, 0x22, 0xc0, 0xd2, 0x0a, 0xbc, 0x53, 0x19, 0x2b, 0xec, 0xa9, 0xe5, 0xf5, 0xd7, 0x09, 0xfe, 0x19, 0xac, 0xd7, 0xf5, 0x81, 0xdd, 0xe2, 0x42, 0xff, 0x2b, 0xf7, 0xd5, 0x09, 0xd9, 0xf5, 0x2f, 0xdc, 0x38, 0xe1, 0xeb, 0x0e, 0x95, 0xc9, 0xe2, 0xab, 0xe1, 0xfd, 0x1d, 0xcd, 0x1d, 0x5e, 0x1f, 0x2e, 0x59, 0xe0, 0x49, 0xac, 0xed, 0xeb, 0xfb, 0xf7, 0xe8, 0x00, 0xce, 0xcb, 0xe6, 0xf5, 0x16, 0xd3, 0xea, 0xb3, 0x14, 0x43, 0xcd, 0x10, 0x00, 0xaf, 0x22, 0xec, 0x04, 0x09, 0xfd, 0x46, 0x26, 0x24, 0xfb, 0xbf, 0x0a, 0xfa, 0xf6, 0xfd, 0x1f, 0xf3, 0x08, 0xfe, 0xf8, 0xed, 0xc7, 0x37, 0xe9, 0x2f, 0x1d, 0xe0, 0xfa, 0x2b, 0xe2, 0x3f, 0xf7, 0x00, 0x03, 0xf4, 0x05, 0x05, 0x00, 0x07, 0x08, 0x15, 0xe6, 0xd4, 0x08, 0x07, 0xb9, 0x11, 0x15, 0x1d, 0xec, 0xf9, 0xfa, 0xd8, 0xfa, 0x00, 0x08, 0x08, 0xe3, 0xde, 0x04, 0xf1, 0x9c, 0x00, 0x03, 0xf5, 0xf6, 0x33, 0x27, 0xf7, 0xc8, 0xd5, 0x08, 0xf2, 0xfe, 0x19, 0xed, 0xe4, 0xe5, 0x0a, 0x1d, 0xfb, 0xed, 0x01, 0x0c, 0x01, 0xf9, 0xe6, 0xff, 0x0c, 0x07, 0x1c, 0xee, 0xfd, 0xe8, 0x1b, 0xe0, 0xf1, 0xe6, 0x11, 0x25, 0xf6, 0x0a, 0xfc, 0x27, 0xc4, 0xcd, 0xe2, 0x00, 0xfa, 0x0f, 0x0e, 0xf3, 0x1d, 0x03, 0xd7, 0xd6, 0x14, 0x10, 0xff, 0xf6, 0x10, 0xe7, 0xe5, 0xfc, 0x18, 0xff, 0x20, 0x00, 0xdb, 0xf3, 0x28, 0xef, 0x11, 0xfb, 0xd2, 0x11, 0xfd, 0xe4, 0xfd, 0x06, 0x0e, 0xe4, 0x0d, 0x0c, 0xf8, 0x06, 0x0b, 0x05, 0xd3, 0xfc, 0xf2, 0xe3, 0x05, 0xff, 0xdd, 0x27, 0x02, 0xe9, 0x38, 0x08, 0xd4, 0x02, 0x00, 0x18, 0x2f, 0x19, 0xd6, 0x09, 0x19, 0x01, 0xfb, 0x03, 0xfe, 0xe3, 0x28, 0x28, 0x01, 0x07, 0x12, 0x1d, 0x16, 0x15, 0xf9, 0x25, 0x0a, 0x02, 0x0a, 0xda, 0xf7, 0x17, 0xed, 0xfc, 0xd4, 0xf0, 0x05, 0x25, 0xd3, 0xf6, 0x13, 0x08, 0xc3, 0x02, 0x3b, 0x22, 0x32, 0xfc, 0x1e, 0xf9, 0xff, 0x02, 0xdf, 0x21, 0x06, 0x7f, 0x06, 0x05, 0x05, 0x08, 0x0a, 0xf0, 0xed, 0x53, 0x23, 0x15, 0x26, 0x06, 0xf4, 0xf7, 0x15, 